<pad>	0
</s>	0
<unk>	0
,	-3.09338
▁de	-3.11861
.	-3.54474
s	-3.79653
▁a	-3.8582
▁e	-3.86922
▁o	-4.16915
▁do	-4.36145
▁da	-4.41229
▁em	-4.4175
▁que	-4.57864
-	-4.8636
▁"	-4.87043
▁um	-4.92028
▁uma	-4.98063
▁com	-5.00551
▁no	-5.03556
▁para	-5.08771
▁é	-5.11634
▁na	-5.16366
▁foi	-5.30546
▁(	-5.31121
▁A	-5.31425
▁por	-5.33413
"	-5.3916
▁O	-5.51164
▁como	-5.51296
▁os	-5.55619
▁	-5.59911
se	-5.75829
r	-5.77728
▁dos	-5.78972
▁se	-5.799
)	-5.90718
▁ao	-5.92206
▁sua	-5.93691
▁mais	-5.99704
▁Em	-6.02574
m	-6.02636
▁as	-6.03502
o	-6.06556
a	-6.07802
▁seu	-6.11564
:	-6.12853
▁não	-6.21437
▁à	-6.2824
",	-6.28818
▁pela	-6.36453
▁das	-6.38743
▁ou	-6.41194
do	-6.44657
▁pelo	-6.4484
▁também	-6.47461
u	-6.50042
▁ser	-6.54016
da	-6.55768
ndo	-6.6318
▁entre	-6.64086
e	-6.65328
▁são	-6.66411
),	-6.71083
".	-6.73824
▁anos	-6.78805
▁No	-6.79972
▁era	-6.81501
▁ele	-6.81866
▁mas	-6.84925
▁foram	-6.90474
t	-6.92642
▁cidade	-7.01205
).	-7.01866
;	-7.02041
▁até	-7.02077
i	-7.02105
l	-7.02484
▁-	-7.03812
es	-7.06033
▁seus	-7.06949
▁sobre	-7.07692
va	-7.08051
▁onde	-7.09127
▁nos	-7.10643
▁Os	-7.10869
de	-7.1357
▁tem	-7.13793
▁ano	-7.15089
A	-7.19344
▁primeiro	-7.20625
▁Na	-7.2219
▁parte	-7.23139
ção	-7.23193
▁quando	-7.27218
▁sendo	-7.27626
n	-7.27678
ia	-7.28498
ram	-7.29259
▁São	-7.29943
▁primeira	-7.30175
▁mesmo	-7.30765
na	-7.31585
y	-7.33079
la	-7.3371
mente	-7.35187
▁dois	-7.35416
▁dia	-7.37364
▁durante	-7.37669
▁km	-7.37919
'	-7.38642
▁1	-7.38678
▁Brasil	-7.39328
/	-7.40429
▁depois	-7.41674
▁re	-7.41759
▁I	-7.42501
▁nas	-7.42592
▁De	-7.4328
ra	-7.43715
d	-7.44262
ta	-7.44347
▁Foi	-7.45023
to	-7.45339
lo	-7.45374
▁suas	-7.45904
▁nome	-7.46582
▁2	-7.4678
▁Ele	-7.47164
▁outros	-7.48007
▁E	-7.48446
em	-7.48883
▁contra	-7.48988
is	-7.50169
▁grande	-7.50314
▁3	-7.50783
▁ainda	-7.51654
▁pode	-7.52076
▁área	-7.52331
▁região	-7.52821
▁S	-7.53016
▁está	-7.53277
▁As	-7.53623
▁aos	-7.53759
▁após	-7.54868
▁família	-7.55177
te	-7.55352
2	-7.55438
▁já	-7.57106
▁É	-7.57863
▁ter	-7.58093
▁muito	-7.58183
▁álbum	-7.58298
▁maior	-7.58407
dos	-7.58927
▁vez	-7.59273
▁forma	-7.59641
no	-7.59847
▁apenas	-7.60097
▁três	-7.61609
▁ela	-7.62013
▁estado	-7.64532
▁filme	-7.65062
▁4	-7.65222
▁in	-7.65656
C	-7.66006
▁Rio	-7.67668
c	-7.67836
▁sido	-7.68258
▁final	-7.68545
▁grupo	-7.70516
▁duas	-7.70897
▁tempo	-7.71838
ou	-7.72153
▁então	-7.72559
O	-7.73224
▁segundo	-7.73485
▁população	-7.74096
das	-7.74587
le	-7.748
▁D	-7.75724
ca	-7.76496
h	-7.77229
▁série	-7.77282
▁qual	-7.77944
▁Com	-7.78471
ma	-7.78601
que	-7.7881
er	-7.78934
z	-7.79776
co	-7.81634
▁5	-7.81739
ne	-7.8263
in	-7.83321
▁15	-7.8423
▁banda	-7.84426
▁Paulo	-7.84531
am	-7.86071
▁tinha	-7.86483
▁todos	-7.86601
▁17	-7.86626
▁C	-7.86725
▁teve	-7.86904
▁sem	-7.87367
▁desde	-7.87959
▁16	-7.88073
k	-7.88658
S	-7.89668
▁partir	-7.89914
p	-7.90326
▁pelos	-7.90784
▁espécie	-7.90959
nte	-7.91342
b	-7.91658
re	-7.91713
ria	-7.91773
▁música	-7.91899
▁Estados	-7.9234
▁tendo	-7.92478
▁bem	-7.93081
▁norte	-7.93915
▁país	-7.93972
▁história	-7.95251
B	-7.95554
▁of	-7.95622
▁Unidos	-7.95789
g	-7.95875
▁outras	-7.96618
▁cada	-7.96692
ções	-7.96794
▁10	-7.976
▁6	-7.97749
á	-7.97925
▁habitantes	-7.9795
▁estava	-7.98677
▁município	-7.98801
▁vida	-7.99056
▁acordo	-7.99282
ce	-8.00573
▁ex	-8.00681
▁antes	-8.01408
▁às	-8.02561
▁assim	-8.02752
ga	-8.03239
▁este	-8.03574
f	-8.03815
en	-8.04083
▁jogo	-8.04223
▁pessoas	-8.04347
▁época	-8.04858
▁La	-8.05158
▁alguns	-8.05602
di	-8.05757
▁B	-8.05864
ro	-8.05909
▁12	-8.06036
ar	-8.06609
mo	-8.06657
▁lançado	-8.06791
▁através	-8.06978
▁conhecido	-8.07119
▁fez	-8.07503
▁século	-8.07624
▁("	-8.07825
▁número	-8.07848
▁mundo	-8.07928
x	-8.08089
▁Sul	-8.08651
▁enquanto	-8.08826
▁governo	-8.0892
▁principal	-8.09413
▁vezes	-8.09755
▁cerca	-8.09773
▁seguinte	-8.09805
▁esta	-8.09881
▁além	-8.10272
▁sistema	-8.10476
sa	-8.10577
▁sob	-8.10652
▁tornou	-8.10752
▁7	-8.1114
▁vários	-8.11788
▁eram	-8.11858
▁The	-8.12354
▁temporada	-8.12403
▁Se	-8.12758
▁quatro	-8.13132
▁lugar	-8.1353
▁novo	-8.13805
ba	-8.13957
▁8	-8.1425
▁início	-8.14753
▁Um	-8.15146
▁Universidade	-8.1528
▁Re	-8.156
▁eles	-8.15609
▁trabalho	-8.15612
▁período	-8.15782
▁14	-8.16339
▁T	-8.17008
os	-8.17257
í	-8.17803
pa	-8.18636
▁Para	-8.1873
▁“	-8.18904
man	-8.19186
me	-8.19205
▁havia	-8.19382
▁Após	-8.1961
li	-8.19665
▁P	-8.19865
▁março	-8.1988
▁outubro	-8.1993
▁""	-8.1997
▁Por	-8.19996
")	-8.20757
▁G	-8.21302
▁setembro	-8.21371
▁20	-8.2138
▁janeiro	-8.21499
▁podem	-8.215
▁maio	-8.21715
▁dezembro	-8.21977
E	-8.2215
▁Janeiro	-8.22326
▁Nova	-8.22477
▁13	-8.2254
ve	-8.22722
The	-8.22959
al	-8.23216
us	-8.23233
ri	-8.23388
go	-8.23541
▁num	-8.23831
▁11	-8.23876
▁agosto	-8.23973
▁julho	-8.24102
▁–	-8.24197
ado	-8.24398
▁equipe	-8.2441
▁título	-8.24551
D	-8.25484
▁filho	-8.25486
▁R	-8.25876
▁abril	-8.25967
▁lado	-8.26142
▁estão	-8.26198
▁local	-8.26258
▁começou	-8.26625
▁junho	-8.27092
on	-8.27213
▁9	-8.27363
I	-8.2744
▁programa	-8.27631
▁José	-8.28538
▁devido	-8.28598
▁the	-8.29087
▁isso	-8.29165
ni	-8.29186
▁passou	-8.29368
▁João	-8.2945
▁Campeonato	-8.29475
▁novembro	-8.29585
▁segunda	-8.29658
▁brasileiro	-8.29824
▁morte	-8.30016
▁entanto	-8.30157
▁várias	-8.30792
▁carreira	-8.31144
▁quais	-8.31362
vam	-8.31499
▁água	-8.31616
▁todo	-8.31944
▁casa	-8.32017
▁F	-8.32058
▁tarde	-8.32122
▁Portugal	-8.325
▁Este	-8.3267
▁Maria	-8.33059
res	-8.33435
▁Estado	-8.3367
▁Nacional	-8.33704
▁nova	-8.3381
▁fim	-8.33824
▁canção	-8.33911
▁melhor	-8.33956
▁meio	-8.33999
▁outro	-8.34016
P	-8.3425
▁Esta	-8.34463
pe	-8.34694
▁sul	-8.35492
▁Guerra	-8.35795
▁possui	-8.35804
▁há	-8.36456
▁localizada	-8.36492
F	-8.36726
as	-8.36834
ão	-8.37271
▁clube	-8.37307
G	-8.37413
▁fevereiro	-8.37501
▁Grande	-8.37682
▁Uma	-8.37962
ti	-8.3826
vi	-8.3882
▁década	-8.38929
▁distrito	-8.39109
▁co	-8.39109
▁presidente	-8.39504
▁formula	-8.39512
▁exemplo	-8.39522
▁M	-8.39568
ter	-8.39736
ch	-8.39972
ck	-8.40751
▁produção	-8.41027
▁Le	-8.41353
▁volta	-8.41656
▁Ela	-8.41736
1	-8.42034
▁pai	-8.4217
▁sucesso	-8.4228
▁base	-8.42321
▁Sua	-8.42409
▁Mar	-8.42485
mento	-8.42728
▁algumas	-8.42838
dor	-8.43367
▁muitos	-8.43569
ge	-8.436
▁só	-8.43648
▁conta	-8.43847
▁Ca	-8.44307
▁mil	-8.44341
▁chamado	-8.44588
ada	-8.44739
▁Segundo	-8.44744
▁—	-8.449
▁fazer	-8.44987
▁Durante	-8.45246
idade	-8.45492
▁milhões	-8.45646
▁Santa	-8.46244
▁dias	-8.46339
um	-8.46362
sse	-8.4639
▁pertencente	-8.46898
be	-8.47042
▁empresa	-8.47043
▁recebeu	-8.47078
▁incluindo	-8.47696
▁numa	-8.48035
▁edição	-8.48583
▁menos	-8.48604
▁Mo	-8.48636
▁30	-8.48875
▁versão	-8.49016
ismo	-8.4921
▁todas	-8.4941
▁In	-8.49713
▁Como	-8.49726
2.	-8.49731
▁seria	-8.49864
▁K	-8.49984
w	-8.5
▁pois	-8.50736
▁Al	-8.5077
▁gênero	-8.5095
son	-8.51006
é	-8.51102
▁livro	-8.51167
▁18	-8.51292
▁mesma	-8.51414
▁seja	-8.51501
▁V	-8.51767
▁m	-8.51925
▁principais	-8.52134
▁cinco	-8.52189
ing	-8.52337
▁grandes	-8.52583
▁rei	-8.52611
▁Além	-8.52758
bo	-8.53147
ver	-8.53261
ci	-8.53264
▁Copa	-8.53353
V	-8.53373
▁Mundial	-8.5352
3	-8.5352
▁Me	-8.53762
T	-8.539
▁longo	-8.53939
▁Depois	-8.54092
▁disso	-8.54173
▁N	-8.54587
▁Seu	-8.54609
▁países	-8.5465
▁maioria	-8.54696
po	-8.55048
▁II	-8.55394
ntes	-8.55429
▁rio	-8.5579
L	-8.55938
▁posição	-8.56036
▁caso	-8.56265
▁Jogos	-8.5627
▁nacional	-8.56315
▁futebol	-8.56426
▁uso	-8.56695
▁qualquer	-8.57015
▁comuna	-8.57162
▁muitas	-8.57265
▁di	-8.57395
▁U	-8.575
▁guerra	-8.57669
▁obra	-8.57679
ista	-8.57837
▁projeto	-8.58155
▁processo	-8.5858
▁França	-8.58699
ton	-8.58957
M	-8.5896
▁conhecida	-8.59784
▁(19	-8.5997
v	-8.60249
▁25	-8.60309
▁relação	-8.6034
▁pouco	-8.60353
K	-8.60397
▁papel	-8.60481
▁Co	-8.60755
▁la	-8.60966
▁jogos	-8.6113
▁público	-8.61667
▁Norte	-8.61693
▁ficou	-8.61731
th	-8.61961
com	-8.62362
▁24	-8.62395
ry	-8.62929
▁Sa	-8.62989
▁Quando	-8.63373
▁desenvolvimento	-8.63574
▁Ao	-8.63659
▁tipo	-8.63842
▁capital	-8.63924
▁total	-8.6413
per	-8.64326
▁província	-8.64541
an	-8.6497
▁Igreja	-8.65079
▁diferentes	-8.65881
▁L	-8.66051
▁poder	-8.66119
so	-8.66258
▁América	-8.66739
▁terra	-8.66788
▁membros	-8.67113
▁21	-8.67276
▁oficial	-8.6737
▁si	-8.6751
▁construção	-8.67522
▁sempre	-8.6755
▁importante	-8.68218
▁hoje	-8.68248
▁política	-8.68509
ir	-8.68557
▁centro	-8.68664
ina	-8.69036
ja	-8.69232
▁toda	-8.69265
▁Carlos	-8.69448
mos	-8.69503
▁americano	-8.69713
▁sub	-8.69817
▁fora	-8.70327
▁desta	-8.70346
▁19	-8.70455
▁junto	-8.70499
▁Futebol	-8.70791
▁Também	-8.70863
▁principalmente	-8.71011
▁último	-8.71016
▁outra	-8.71371
el	-8.71645
▁dentro	-8.71699
▁Ta	-8.71865
▁mar	-8.71974
▁faz	-8.71975
▁têm	-8.72354
▁Ma	-8.72456
▁quase	-8.72492
▁22	-8.72581
▁Alemanha	-8.72597
ka	-8.72802
▁porém	-8.73
▁obras	-8.73423
▁sede	-8.73571
▁and	-8.73598
▁nível	-8.74152
vo	-8.74211
▁con	-8.74213
▁pontos	-8.74427
▁português	-8.74491
za	-8.74522
▁idade	-8.74652
der	-8.7469
tra	-8.75269
▁território	-8.75314
▁metros	-8.7532
▁pelas	-8.75425
▁origem	-8.75562
▁censo	-8.75876
▁seguintes	-8.76087
▁pro	-8.76188
▁embora	-8.76253
R	-8.76266
▁Reino	-8.7632
ed	-8.76364
▁tanto	-8.76375
N	-8.76376
▁lhe	-8.76559
▁geral	-8.76563
”	-8.77104
▁Be	-8.77127
▁ponto	-8.77284
▁esse	-8.77381
▁próprio	-8.77517
et	-8.77582
▁Europa	-8.77876
▁Con	-8.77924
▁fase	-8.77932
▁John	-8.78253
ke	-8.78296
du	-8.78568
H	-8.78679
mar	-8.7916
▁Entre	-8.79261
▁J	-8.79371
mi	-8.79392
▁23	-8.79396
▁primeiros	-8.79462
▁essa	-8.79491
▁Ha	-8.79517
▁localizado	-8.79664
▁Pedro	-8.79791
▁linha	-8.80098
▁Li	-8.80222
▁televisão	-8.80655
▁chamada	-8.80888
▁República	-8.80897
st	-8.81041
▁TV	-8.81425
▁San	-8.81516
▁Ro	-8.816
▁ca	-8.81777
▁pre	-8.8188
j	-8.81972
▁lançamento	-8.82112
▁Ba	-8.82387
▁corpo	-8.82498
2,	-8.82744
▁profissional	-8.82872
▁Mas	-8.82912
▁X	-8.82994
▁filha	-8.83253
▁Lo	-8.83586
▁cor	-8.83628
▁diversos	-8.83775
gi	-8.83847
▁seis	-8.8385
tu	-8.84272
▁francesa	-8.84291
che	-8.84437
▁deste	-8.84488
▁lista	-8.84491
▁brasileira	-8.84594
ó	-8.84799
cha	-8.85027
▁chegou	-8.85188
▁Francisco	-8.85336
▁novamente	-8.85376
▁Porto	-8.8542
▁conjunto	-8.85528
▁diversas	-8.8564
▁original	-8.85707
▁28	-8.85717
▁membro	-8.85853
dia	-8.85961
gu	-8.86408
▁disco	-8.86441
ita	-8.86441
▁terceiro	-8.86897
ur	-8.87038
tos	-8.87081
▁Da	-8.87092
▁deve	-8.87164
▁causa	-8.87236
▁ilha	-8.8757
▁disse	-8.8773
▁Man	-8.87731
rá	-8.87839
▁H	-8.88004
▁político	-8.88042
▁único	-8.88065
americano	-8.88143
dores	-8.88261
▁considerado	-8.88346
ú	-8.88478
▁personagem	-8.88603
▁feito	-8.88625
▁26	-8.88661
▁administrativa	-8.88698
▁campo	-8.88699
▁luta	-8.88745
▁movimento	-8.88786
qui	-8.88954
▁estilo	-8.89493
bi	-8.89599
▁atual	-8.89612
▁militar	-8.89628
▁escola	-8.89629
▁mãe	-8.89901
▁cobertos	-8.89937
▁Pe	-8.90263
▁departamento	-8.90388
▁Apesar	-8.90411
ly	-8.90514
▁jogador	-8.90704
pi	-8.90811
▁W	-8.90858
▁competição	-8.91334
ng	-8.91383
▁27	-8.91395
▁quem	-8.91689
4	-8.917
▁maiores	-8.9184
▁Espanha	-8.91872
▁meses	-8.9195
▁ganhou	-8.92081
▁Di	-8.92204
▁d	-8.92222
▁Pro	-8.92246
▁Ar	-8.92352
▁Do	-8.92898
U	-8.93137
▁fato	-8.93242
io	-8.93398
fe	-8.93583
▁encontra	-8.93614
ça	-8.93703
▁revista	-8.93751
▁geralmente	-8.93755
ização	-8.9384
▁Pa	-8.93979
▁Car	-8.93986
los	-8.94153
▁cargo	-8.94253
▁filhos	-8.94306
▁criação	-8.94341
▁presente	-8.94399
▁termo	-8.94623
▁Lisboa	-8.94737
▁média	-8.94805
▁língua	-8.94879
▁estavam	-8.94955
il	-8.95122
▁última	-8.95191
▁grupos	-8.95271
▁logo	-8.95357
ha	-8.95634
fa	-8.95766
▁musical	-8.95834
▁usado	-8.95946
▁Ra	-8.96067
lhe	-8.96486
▁espécies	-8.96901
ação	-8.97047
▁porque	-8.97063
ki	-8.97567
ber	-8.97609
sh	-8.97793
con	-8.97804
▁Internacional	-8.97808
W	-8.9781
▁possível	-8.98178
▁irmão	-8.9826
▁momento	-8.98632
▁social	-8.98651
▁única	-8.9873
▁homens	-8.98789
▁inglês	-8.98795
▁Ka	-8.98841
▁me	-8.99095
▁espaço	-8.99128
▁for	-8.99254
cu	-8.99374
▁representa	-8.99507
▁força	-8.99611
▁estúdio	-8.99972
chi	-9.00022
rem	-9.00269
ões	-9.00276
tor	-9.003
▁participação	-9.0053
▁quanto	-9.00605
▁filmes	-9.00626
▁tal	-9.00684
▁100	-9.00732
▁29	-9.00741
▁eleito	-9.01008
▁própria	-9.01022
▁Mi	-9.01228
je	-9.0127
tas	-9.01278
▁Go	-9.01364
▁2006,	-9.01441
▁atualmente	-9.01546
▁&	-9.0163
▁professor	-9.01874
▁conseguiu	-9.0228
or	-9.02316
▁Ri	-9.02386
▁diretor	-9.0257
ya	-9.02771
▁evento	-9.02965
▁'	-9.02988
▁Estende	-9.0306
▁arte	-9.03078
▁direito	-9.03096
▁frente	-9.0329
▁campeão	-9.03335
▁en	-9.0384
▁ordem	-9.03866
▁cantora	-9.03879
▁Federal	-9.03892
▁Bo	-9.03979
▁modo	-9.04131
ll	-9.04154
ley	-9.04232
▁dados	-9.04355
▁União	-9.04518
▁time	-9.04532
"),	-9.04561
▁Ho	-9.04686
▁criado	-9.04746
▁modelo	-9.04769
▁per	-9.04836
▁resultado	-9.05032
▁rede	-9.05122
▁áreas	-9.05161
▁Não	-9.05245
▁participou	-9.05279
▁Ne	-9.05343
▁Lu	-9.05501
▁apoio	-9.05555
▁formação	-9.05598
▁vitória	-9.05684
▁antigo	-9.05807
▁popular	-9.06111
fi	-9.06129
▁Centro	-9.0615
▁mulheres	-9.06384
▁Santo	-9.06589
▁estrutura	-9.06621
▁categoria	-9.06705
▁Ja	-9.07002
▁ver	-9.07072
▁função	-9.07214
▁direção	-9.07375
▁bairro	-9.07396
nd	-9.07459
▁su	-9.07579
▁nasceu	-9.07765
▁Partido	-9.07795
▁Paris	-9.07918
▁serviço	-9.08016
▁homem	-9.08219
▁nunca	-9.08246
▁igreja	-9.0846
▁nomeado	-9.085
▁comum	-9.08542
▁El	-9.08657
ko	-9.08694
▁aproximadamente	-9.08821
(	-9.08892
▁Su	-9.09008
ze	-9.0926
▁Assim	-9.09404
▁realizado	-9.0946
▁internacional	-9.0951
▁Per	-9.09554
▁francês	-9.09598
▁locais	-9.09606
tro	-9.09609
▁lei	-9.09678
▁antiga	-9.09726
▁controle	-9.09909
▁Terra	-9.09996
▁Itália	-9.10015
▁problemas	-9.10042
▁single	-9.10061
▁2000,	-9.10144
▁c	-9.10246
▁Atualmente	-9.1032
▁Ti	-9.10356
▁Instituto	-9.10372
▁Casa	-9.10376
▁He	-9.10424
▁exército	-9.1056
▁vice	-9.10622
▁mulher	-9.11049
7	-9.11062
▁cidades	-9.11167
▁Olímpicos	-9.1124
des	-9.11508
▁forças	-9.11681
▁especial	-9.11771
▁Te	-9.1181
istas	-9.11824
▁31	-9.11994
▁lançou	-9.12066
▁Bar	-9.12305
▁Cha	-9.1232
tiva	-9.12324
ine	-9.1244
via	-9.12451
▁Roma	-9.12569
▁importantes	-9.12575
▁ar	-9.12589
▁Fa	-9.12709
les	-9.12734
▁Mais	-9.12767
▁to	-9.12799
▁episódio	-9.12953
▁acabou	-9.13221
▁To	-9.13305
▁divisão	-9.13348
den	-9.13383
▁densidade	-9.13402
▁valor	-9.13481
▁2010	-9.13504
▁Pi	-9.13539
▁capacidade	-9.13552
▁alta	-9.13588
▁forte	-9.13721
▁seguida	-9.1378
gem	-9.13871
▁Unido	-9.13873
ad	-9.14078
▁Desde	-9.14121
it	-9.14314
▁Império	-9.14477
▁agora	-9.14481
▁Silva	-9.14647
▁al	-9.14823
8	-9.14884
▁apesar	-9.14993
▁Vi	-9.15087
tes	-9.15324
▁Japão	-9.15356
▁esposa	-9.15359
ino	-9.15422
▁apresenta	-9.15491
▁Po	-9.15565
▁estudos	-9.15814
▁Cor	-9.15821
▁ouro	-9.15824
▁2012	-9.15841
ana	-9.15895
▁ma	-9.16027
0	-9.16273
si	-9.16622
▁comunidade	-9.16745
6	-9.16755
▁2010,	-9.16779
▁objetivo	-9.16814
por	-9.17115
car	-9.17193
▁Condado	-9.1721
▁Inglaterra	-9.17231
▁marca	-9.17411
▁autor	-9.17425
▁redor	-9.17488
▁tinham	-9.17554
▁jovem	-9.17593
land	-9.17844
ável	-9.17949
▁teria	-9.17961
▁Ko	-9.17966
▁acima	-9.1813
▁Escola	-9.18182
▁ocorreu	-9.18351
▁interior	-9.18413
▁altura	-9.18503
▁dirigido	-9.18723
▁Mundo	-9.18742
▁ambos	-9.1886
▁mo	-9.18895
▁Segunda	-9.19058
▁organização	-9.19213
▁escreveu	-9.19265
▁somente	-9.19347
nt	-9.19407
▁central	-9.19491
ty	-9.19719
cia	-9.19728
▁tenha	-9.19742
▁Deus	-9.19848
▁morreu	-9.1987
▁real	-9.19892
▁Tem	-9.2003
▁ra	-9.20131
▁personagens	-9.20269
X	-9.20312
▁levou	-9.20364
▁faixa	-9.2038
▁novos	-9.20518
▁tais	-9.20528
ven	-9.20572
ê	-9.20641
▁cinema	-9.20665
▁alemão	-9.20765
▁horas	-9.20851
▁melhores	-9.20919
adas	-9.2107
▁anterior	-9.21073
▁Ni	-9.21128
▁Real	-9.2121
▁inter	-9.21283
▁vídeo	-9.21306
▁presença	-9.2137
▁energia	-9.21379
lu	-9.21381
]	-9.21453
ssa	-9.21527
▁estreia	-9.21567
▁passa	-9.21631
▁)	-9.21724
▁prova	-9.21724
▁sete	-9.21797
▁mercado	-9.21914
▁partida	-9.22004
pre	-9.22009
▁Embora	-9.22086
▁Ga	-9.22107
▁portuguesa	-9.22151
▁posteriormente	-9.22261
▁regiões	-9.22286
°	-9.22361
""	-9.22434
▁acesso	-9.22469
ssem	-9.22557
▁pessoa	-9.22698
▁fazendo	-9.22713
▁músicas	-9.22739
▁vai	-9.2286
▁responsável	-9.22959
▁campanha	-9.22974
▁diz	-9.22978
5	-9.2316
cho	-9.23168
bu	-9.23437
▁cultura	-9.23547
▁realizada	-9.23746
gue	-9.23812
ru	-9.23813
▁data	-9.23921
▁Londres	-9.23954
▁fosse	-9.24008
▁canal	-9.24083
ster	-9.24163
ário	-9.24174
▁especialmente	-9.24182
Ma	-9.24315
tou	-9.24341
▁serviços	-9.24437
zi	-9.24572
▁li	-9.24591
▁tão	-9.24599
ex	-9.24639
▁semana	-9.24667
tura	-9.24688
▁terceira	-9.24735
▁quarto	-9.24766
▁estação	-9.24769
▁atividades	-9.25037
▁superior	-9.25125
J	-9.25316
▁Lei	-9.25444
tivo	-9.25563
▁Vila	-9.25592
▁Possui	-9.25686
▁50	-9.25973
gar	-9.26075
▁fica	-9.26223
wa	-9.26266
at	-9.2632
▁juntamente	-9.26371
▁Ju	-9.26442
▁Era	-9.26576
nos	-9.26701
▁próximo	-9.26701
%	-9.26893
▁China	-9.26933
▁equipes	-9.27078
ando	-9.27123
▁sociedade	-9.27231
ff	-9.27265
ut	-9.27287
▁noite	-9.27298
▁New	-9.27304
▁novas	-9.27332
▁Clube	-9.27363
ten	-9.27477
▁bi	-9.27519
▁significa	-9.27629
▁Pan	-9.27792
▁Bu	-9.27973
▁2000	-9.28113
▁casamento	-9.28137
km	-9.28214
▁(18	-9.28245
▁campeonato	-9.28319
▁bastante	-9.28339
▁So	-9.28442
▁feita	-9.28443
▁Conselho	-9.28447
▁Santos	-9.28464
▁Mu	-9.28491
▁minutos	-9.28531
▁criada	-9.28554
▁será	-9.2857
las	-9.28571
▁Du	-9.28687
30	-9.2878
▁2012,	-9.28783
▁deixou	-9.28786
▁2008	-9.29082
▁En	-9.29145
▁oito	-9.29192
▁Hu	-9.29251
▁Já	-9.29255
▁solo	-9.29342
ados	-9.29423
▁canções	-9.29592
-19	-9.29681
▁2011,	-9.29707
▁perto	-9.29834
▁escrito	-9.29952
id	-9.30076
▁elementos	-9.30176
▁ajuda	-9.30215
▁2011	-9.30231
▁[[	-9.30389
▁Fi	-9.30405
▁eventos	-9.30512
sco	-9.30516
▁disputa	-9.30696
▁Luís	-9.30715
▁tornando	-9.30861
▁nem	-9.30903
La	-9.30943
ço	-9.30955
▁utilizado	-9.30983
bra	-9.31059
▁ator	-9.31103
▁lançada	-9.31134
▁2016,	-9.31383
▁contrato	-9.31383
im	-9.31472
▁Tu	-9.31606
▁venceu	-9.31609
▁alto	-9.31648
ku	-9.31728
ul	-9.31808
▁ensino	-9.31948
jo	-9.32053
▁pesquisa	-9.32054
un	-9.3206
▁United	-9.32066
▁trabalhos	-9.32088
▁serem	-9.32148
▁estar	-9.32365
▁2014	-9.32384
▁maneira	-9.32387
▁África	-9.32426
▁vila	-9.32428
▁Si	-9.32435
▁Brasileiro	-9.32449
▁York	-9.32549
▁atriz	-9.32622
▁teoria	-9.32665
▁aumento	-9.3268
▁mundial	-9.3279
▁oeste	-9.32967
▁2013	-9.32994
▁2009	-9.33062
hi	-9.3315
▁deu	-9.33161
▁estreou	-9.3319
▁Eles	-9.33205
lha	-9.33215
▁pequena	-9.33222
▁estadunidense	-9.33243
$	-9.3326
▁influência	-9.3329
ger	-9.33365
▁hab	-9.33444
ner	-9.33461
▁menor	-9.33465
▁voltou	-9.33471
▁2008,	-9.33504
▁votos	-9.33522
▁publicado	-9.33656
▁terminou	-9.33699
▁anti	-9.33807
▁2013,	-9.33826
▁entrou	-9.33873
▁poderia	-9.34206
▁Câmara	-9.34249
lin	-9.34396
▁ba	-9.34442
▁artista	-9.34752
▁México	-9.34794
cas	-9.34933
▁livros	-9.3497
▁neste	-9.34974
▁empresas	-9.35007
▁Can	-9.35157
▁Ver	-9.35209
▁conquistou	-9.35213
▁mudou	-9.35256
▁partido	-9.35264
▁artistas	-9.35274
sta	-9.35294
▁tornar	-9.35304
").	-9.35378
▁2016	-9.35393
▁classe	-9.35495
▁pi	-9.35536
ju	-9.35724
ler	-9.35885
–	-9.35961
▁estudo	-9.3638
▁trans	-9.36435
▁anunciou	-9.36512
▁estimada	-9.36554
▁Liga	-9.3658
▁jogadores	-9.36921
▁livre	-9.37193
nce	-9.3727
▁2014,	-9.37399
▁torneio	-9.3741
▁comando	-9.37449
▁vivo	-9.37468
▁David	-9.37474
▁40	-9.3751
▁jornal	-9.37511
▁tudo	-9.37606
▁casos	-9.37642
▁escrita	-9.3767
min	-9.37686
sen	-9.37723
9	-9.37728
▁crianças	-9.37896
▁2009,	-9.37907
▁Seleção	-9.3798
▁sa	-9.38014
De	-9.38053
▁III	-9.38167
▁2015	-9.38259
dy	-9.38396
▁busca	-9.38693
▁via	-9.38797
▁zona	-9.38803
▁Costa	-9.38806
gen	-9.38947
mon	-9.39152
▁nesta	-9.39171
▁i	-9.39367
▁mês	-9.39383
▁Eu	-9.394
▁curso	-9.39561
▁turnê	-9.39603
▁2007	-9.39624
▁Bi	-9.39835
▁Ana	-9.39871
ie	-9.39997
▁Cruz	-9.40017
▁Enquanto	-9.40145
▁vi	-9.40215
▁Nos	-9.40244
par	-9.40248
▁populacional	-9.40453
▁dessa	-9.4049
▁Tra	-9.40492
▁natural	-9.40662
rio	-9.40666
▁freguesia	-9.40694
fo	-9.4081
nda	-9.40834
▁material	-9.40884
▁raio	-9.40894
uma	-9.40919
▁Paul	-9.41014
▁()	-9.4114
tal	-9.41193
tar	-9.41225
!	-9.41237
▁feminino	-9.4125
▁super	-9.41268
▁inclui	-9.41268
▁auto	-9.41282
mer	-9.41347
▁falta	-9.41359
▁tradicional	-9.41552
▁cantor	-9.41573
▁batalha	-9.41796
▁2015,	-9.41853
▁Grupo	-9.41916
▁[	-9.41993
▁sexo	-9.42115
mas	-9.42297
▁iniciou	-9.42325
▁leste	-9.42345
▁ataque	-9.4235
▁deles	-9.42366
tion	-9.4239
▁governador	-9.42397
▁/	-9.42428
▁James	-9.42485
▁simples	-9.42514
▁Festival	-9.42636
▁Municipal	-9.42715
▁animais	-9.42768
▁Ainda	-9.42815
▁trabalhar	-9.4292
▁Minas	-9.42963
▁direitos	-9.42973
▁localidades	-9.43311
▁elenco	-9.43325
ura	-9.43339
▁Exército	-9.43347
▁velocidade	-9.43351
ência	-9.43426
▁pequeno	-9.43488
▁Alguns	-9.43489
▁Jesus	-9.4351
▁científica	-9.43568
▁condições	-9.43605
▁fundada	-9.43704
▁ta	-9.43761
▁mal	-9.43809
▁vista	-9.43841
▁Chi	-9.43954
▁Antônio	-9.43989
▁fronteira	-9.43996
▁p	-9.44235
▁situação	-9.44243
▁Pre	-9.44268
▁0	-9.44292
▁Jo	-9.44303
▁eleições	-9.4431
▁lá	-9.44321
▁líder	-9.44414
▁Há	-9.44478
zo	-9.44574
▁Verão	-9.44587
▁composta	-9.44649
▁Essa	-9.44759
▁baseado	-9.44894
▁le	-9.44898
▁considerada	-9.44925
▁desse	-9.45021
▁Prêmio	-9.45104
▁começa	-9.45111
ano	-9.45133
▁2006	-9.45183
tão	-9.45224
pro	-9.45236
idae	-9.45262
▁medalha	-9.45321
▁primeiras	-9.45394
ny	-9.45403
▁características	-9.45481
▁teatro	-9.45649
ol	-9.45764
▁imperador	-9.45804
▁distância	-9.46019
amento	-9.46033
▁criar	-9.46127
▁povo	-9.46162
stra	-9.46196
▁decisão	-9.46248
▁Ben	-9.46268
▁Cu	-9.46315
▁Robert	-9.46358
20	-9.46369
ense	-9.46404
▁Z	-9.46496
▁qualidade	-9.4656
▁tropas	-9.46574
mor	-9.46606
▁Brasileira	-9.46628
eiro	-9.46661
▁Porém	-9.46704
▁tema	-9.46706
▁sentido	-9.46815
▁show	-9.46998
ira	-9.47114
▁baixa	-9.47231
▁Fernando	-9.47266
▁género	-9.47396
▁produtos	-9.47463
▁termos	-9.47468
▁2007,	-9.4749
▁localiza	-9.47495
▁Sol	-9.47542
▁Manuel	-9.47634
▁partes	-9.47684
▁produzido	-9.47729
tado	-9.47977
▁masculino	-9.48042
▁programas	-9.48078
▁existe	-9.48088
▁Rei	-9.48092
ho	-9.48229
▁destaque	-9.48389
Ca	-9.48439
▁Za	-9.48455
50	-9.48491
cer	-9.48565
▁Club	-9.48572
▁Museu	-9.48576
▁baixo	-9.48622
▁homenagem	-9.48823
▁deputado	-9.48899
▁ideia	-9.48912
ji	-9.48935
▁rock	-9.48969
tá	-9.4902
▁William	-9.49131
▁entrada	-9.49186
”,	-9.49305
▁interesse	-9.49443
▁Esse	-9.49567
▁ocorre	-9.49752
rão	-9.49875
▁pública	-9.49904
▁2017,	-9.4992
▁trabalhou	-9.50215
▁segurança	-9.50326
Re	-9.50488
▁saúde	-9.50552
Z	-9.50562
▁sociais	-9.50565
▁militares	-9.50601
nta	-9.50603
10	-9.50617
▁Ordem	-9.50795
▁World	-9.50804
▁dez	-9.50841
▁Jorge	-9.50884
▁plano	-9.50986
lar	-9.5102
▁altitude	-9.51101
▁usada	-9.51158
▁defesa	-9.51257
▁algum	-9.51305
▁EUA	-9.51348
▁economia	-9.51417
▁ação	-9.51448
▁incluem	-9.51469
▁elas	-9.51748
▁prática	-9.51787
ville	-9.518
▁armas	-9.5181
▁houve	-9.51829
▁Central	-9.51977
▁An	-9.51977
▁estadual	-9.52011
▁cuja	-9.5221
▁inicialmente	-9.52283
nes	-9.52349
ran	-9.5235
▁terras	-9.52379
▁obteve	-9.52394
▁Ex	-9.52396
▁manter	-9.52408
▁usando	-9.52547
▁visto	-9.52599
▁condado	-9.5267
▁caminho	-9.52685
▁Rede	-9.527
▁emissora	-9.52715
▁abertura	-9.52755
▁torna	-9.52813
▁Argentina	-9.52886
ris	-9.53066
▁independente	-9.53086
▁2004	-9.53136
▁tiveram	-9.53227
▁Austrália	-9.53581
▁Academia	-9.53714
▁Tri	-9.5379
ic	-9.5383
▁últimos	-9.53894
▁edifício	-9.53908
▁boa	-9.5392
cos	-9.53946
rd	-9.53964
▁metade	-9.5398
iam	-9.53986
▁XX	-9.5399
val	-9.54056
▁pré	-9.54076
▁estrela	-9.5423
▁dá	-9.54243
▁Novo	-9.54265
▁composto	-9.54329
nia	-9.54345
▁XIX	-9.54378
▁Rússia	-9.54586
▁prefeito	-9.54633
▁imagem	-9.54704
▁rádio	-9.54809
we	-9.54886
ito	-9.54984
▁combate	-9.55048
▁2018	-9.55075
▁autoridade	-9.55139
▁Senhora	-9.55169
▁referência	-9.55197
gia	-9.55312
▁decidiu	-9.55329
▁gol	-9.55387
▁concelho	-9.55475
▁Gi	-9.55499
▁sistemas	-9.55538
▁crescimento	-9.55544
▁propriedade	-9.55573
▁estes	-9.55587
▁Henrique	-9.55616
▁Ci	-9.55778
tz	-9.55927
▁contém	-9.5594
▁Globo	-9.55979
▁CD	-9.56307
▁atividade	-9.56307
▁George	-9.56321
▁prêmio	-9.56385
▁usar	-9.56402
▁States	-9.56453
▁clubes	-9.56516
▁n	-9.56526
▁Índia	-9.56567
▁2017	-9.56568
▁diferente	-9.56605
▁cujo	-9.56677
▁massa	-9.56744
▁Presidente	-9.56749
▁Canadá	-9.56932
▁diagrama	-9.56985
▁aparece	-9.57012
▁veio	-9.57124
▁importância	-9.57126
▁Music	-9.57252
▁longa	-9.57476
sso	-9.575
▁atrás	-9.5761
▁recursos	-9.5765
▁chefe	-9.57685
▁liga	-9.57699
▁originalmente	-9.577
▁Ce	-9.57701
▁nomes	-9.57712
▁palavra	-9.5775
▁amor	-9.57764
▁escritor	-9.57815
▁2005	-9.57816
▁educação	-9.57884
cio	-9.57906
▁crítica	-9.57991
▁abaixo	-9.5802
▁verdade	-9.58142
▁car	-9.58155
▁Monte	-9.58269
▁unidade	-9.58311
▁quantidade	-9.58405
men	-9.58455
▁funções	-9.58507
▁fa	-9.58535
Se	-9.58545
▁Isso	-9.58551
ais	-9.58682
▁superfície	-9.58697
▁site	-9.58746
▁chegar	-9.58872
▁US	-9.58898
▁encontrar	-9.58939
▁luz	-9.58962
▁natureza	-9.58994
▁construído	-9.59042
▁Bureau	-9.59045
]]	-9.59076
▁po	-9.59077
▁x	-9.59143
▁nenhum	-9.59194
▁Associação	-9.59378
▁italiano	-9.59477
▁continuou	-9.59554
eira	-9.59596
▁informações	-9.59757
▁tamanho	-9.59929
ô	-9.59934
inho	-9.59967
▁comercial	-9.60001
bel	-9.60032
izado	-9.60058
▁unidades	-9.6007
▁descoberto	-9.6008
▁Primeira	-9.60098
▁mostra	-9.60102
▁pe	-9.60158
▁relações	-9.60167
▁seleção	-9.60181
▁St	-9.60198
▁britânico	-9.60217
▁provavelmente	-9.60225
▁Sal	-9.6028
lia	-9.60325
para	-9.60327
▁2018,	-9.60344
ian	-9.60425
▁Filho	-9.60464
▁etc	-9.60671
▁começaram	-9.60716
▁esteve	-9.60747
▁tipos	-9.60748
▁Los	-9.60788
▁Michael	-9.60812
▁1999	-9.60905
▁oficialmente	-9.61043
▁nesse	-9.61078
izada	-9.6108
▁Gerais	-9.61096
▁Ru	-9.61197
▁missão	-9.61335
▁jovens	-9.61418
tica	-9.61494
▁Her	-9.61511
▁padrão	-9.61532
▁Cidade	-9.61541
ã	-9.61581
▁gols	-9.6166
▁Gar	-9.61753
ers	-9.61773
▁resultados	-9.61878
▁problema	-9.61933
▁tratamento	-9.61956
mp	-9.62005
▁Neste	-9.62035
▁pa	-9.62038
▁existem	-9.6205
▁comprimento	-9.62158
tel	-9.62257
▁dupla	-9.62443
▁Miguel	-9.62478
▁afirmou	-9.62504
xi	-9.62571
▁conhecimento	-9.62678
ível	-9.62799
▁Census	-9.628
▁Maio	-9.62809
ker	-9.62819
▁Região	-9.62827
ré	-9.62846
▁Papa	-9.62872
▁torno	-9.62874
▁finalmente	-9.63017
▁criou	-9.63022
▁cabeça	-9.63053
ron	-9.63099
▁companhia	-9.63126
▁conceito	-9.63202
40	-9.63212
▁classificação	-9.63216
▁existência	-9.63239
ros	-9.63248
▁Dom	-9.63261
▁passar	-9.63273
▁vem	-9.63278
▁ambiente	-9.63286
▁rapidamente	-9.63408
▁Iorque	-9.63589
mentos	-9.63625
agem	-9.63691
▁Nossa	-9.63701
▁passado	-9.63705
▁frequentemente	-9.63731
▁60	-9.63913
▁portanto	-9.63958
lho	-9.63986
▁formato	-9.64132
▁figura	-9.64233
▁romance	-9.64272
▁dinheiro	-9.64347
ente	-9.64502
▁federal	-9.64594
▁Wa	-9.64639
▁Abril	-9.64649
▁amigo	-9.64734
00	-9.64748
);	-9.64809
▁possuem	-9.6487
Al	-9.64871
▁Dr	-9.65019
▁som	-9.65171
▁seguir	-9.65185
▁Divisão	-9.65203
▁tri	-9.65274
shi	-9.65277
lis	-9.65363
▁medida	-9.65529
▁Super	-9.65588
▁planta	-9.65589
▁Tom	-9.65616
▁costa	-9.65736
▁Ministério	-9.65769
▁naturais	-9.65902
▁casou	-9.65953
80	-9.66034
▁isto	-9.66088
▁pais	-9.66101
▁semanas	-9.66102
▁italiana	-9.66208
▁Tal	-9.6625
tt	-9.66286
▁Tour	-9.66291
▁sequência	-9.66331
ico	-9.66394
▁faixas	-9.66396
hu	-9.66455
▁Saint	-9.66471
sto	-9.66502
▁passando	-9.66533
▁leva	-9.66569
▁formado	-9.66615
▁algo	-9.66771
▁Ge	-9.66849
▁mudança	-9.66961
▁ir	-9.67004
▁indústria	-9.67087
▁Califórnia	-9.67342
▁Serra	-9.67362
▁Antes	-9.67401
tina	-9.67405
Pa	-9.67494
▁civil	-9.67537
▁títulos	-9.67717
▁apresentou	-9.67781
▁produtor	-9.67797
▁linhas	-9.67916
▁oficiais	-9.68009
gan	-9.68058
nha	-9.68112
▁Trata	-9.68205
▁mandato	-9.68255
tri	-9.68309
▁Or	-9.68315
▁partidas	-9.68404
▁anteriores	-9.68506
▁formada	-9.68569
▁Angeles	-9.68606
▁2005,	-9.6862
rra	-9.68652
▁Records	-9.6871
▁Direito	-9.68728
▁fundado	-9.68738
▁Mon	-9.68739
▁episódios	-9.68776
▁estádio	-9.68834
▁atua	-9.68908
ste	-9.68973
▁cultural	-9.68992
au	-9.69122
▁80	-9.69189
▁par	-9.69274
gra	-9.69518
▁ro	-9.69536
-1	-9.69569
▁2004,	-9.69617
ite	-9.69727
ang	-9.69847
▁contrário	-9.69847
▁carro	-9.6991
▁permite	-9.69917
▁atuou	-9.69932
▁Fo	-9.70057
lla	-9.70111
▁200	-9.70132
tur	-9.70174
▁estados	-9.7018
▁parceria	-9.70193
ment	-9.70241
▁Nas	-9.70292
▁troca	-9.70311
▁demais	-9.70313
70	-9.70323
▁escolas	-9.70339
▁nove	-9.70372
ig	-9.70451
▁peças	-9.70539
▁Governo	-9.70583
▁perdeu	-9.70833
▁2003	-9.70949
▁Entretanto	-9.71002
▁irmã	-9.71136
▁Setembro	-9.71142
inha	-9.7118
▁administração	-9.71196
tório	-9.71206
▁Mal	-9.7136
▁irmãos	-9.71394
▁encontrada	-9.71418
▁tempos	-9.7146
▁Faculdade	-9.71503
gio	-9.71529
▁espanhol	-9.71565
▁participar	-9.71664
rro	-9.7167
▁técnico	-9.71717
qua	-9.71777
▁Vale	-9.71784
▁amigos	-9.71798
iano	-9.71811
▁dele	-9.71813
▁You	-9.71839
▁médio	-9.71968
▁general	-9.71991
19	-9.72007
▁corte	-9.72069
▁futuro	-9.72136
▁transporte	-9.72178
▁Hi	-9.72236
▁compositor	-9.72277
▁Está	-9.72288
▁Pu	-9.72294
▁realizar	-9.72298
gua	-9.72402
▁Junho	-9.72407
▁Val	-9.72521
?	-9.7254
▁humanos	-9.7257
lan	-9.72592
▁marcou	-9.72795
▁assumiu	-9.72837
▁palavras	-9.72864
▁cópias	-9.72867
▁ali	-9.72954
vel	-9.73042
"".	-9.73125
”.	-9.73141
25	-9.73157
rou	-9.7317
▁Até	-9.73193
▁marido	-9.73252
60	-9.73411
▁Bahia	-9.73416
▁esses	-9.73416
▁My	-9.73442
▁formas	-9.73486
▁efeito	-9.73661
▁parece	-9.73691
▁Outubro	-9.73782
▁distribuição	-9.73831
▁bom	-9.73913
▁Cal	-9.73974
▁atenção	-9.73998
▁Melhor	-9.74085
▁fe	-9.74137
ela	-9.74229
▁escala	-9.74263
ária	-9.74266
▁Julho	-9.74325
▁receber	-9.74397
▁Dia	-9.74462
’	-9.74463
▁fonte	-9.74482
000	-9.74541
▁publicada	-9.7455
Ba	-9.74632
▁Rock	-9.74643
▁Bre	-9.74668
▁meados	-9.74671
▁inicial	-9.74777
▁Cristo	-9.74888
ena	-9.74972
ologia	-9.75049
▁favor	-9.75089
▁Fe	-9.75111
▁Gu	-9.75159
izar	-9.75193
▁António	-9.75245
▁completa	-9.75317
▁Bra	-9.75338
▁Março	-9.75396
▁antigos	-9.75412
▁peça	-9.75439
he	-9.75513
bre	-9.75537
▁permaneceu	-9.75565
▁americana	-9.75655
▁comércio	-9.75673
▁Va	-9.75682
ida	-9.75752
▁Sub	-9.75756
▁descrita	-9.75758
fer	-9.75767
▁nenhuma	-9.75771
▁normalmente	-9.75785
▁te	-9.75817
▁gravadora	-9.75877
ov	-9.75992
tan	-9.76095
▁continua	-9.7613
▁soldados	-9.76142
▁Ki	-9.7623
Le	-9.76233
No	-9.76404
▁você	-9.76494
▁jornalista	-9.76501
▁álbuns	-9.76612
▁Parque	-9.76621
▁tra	-9.76662
▁necessário	-9.76804
▁IV	-9.76816
▁situada	-9.76924
áveis	-9.76963
ble	-9.76965
15	-9.7698
▁Oliveira	-9.77012
▁comunicação	-9.77039
mba	-9.77053
▁NGC	-9.77071
▁situado	-9.77172
xa	-9.7724
by	-9.77433
▁regime	-9.77479
▁publicou	-9.77493
▁dólares	-9.77495
▁Inter	-9.77534
ei	-9.77541
▁entrevista	-9.77557
▁poli	-9.77667
iana	-9.77704
▁texto	-9.77772
Sa	-9.77863
ân	-9.77945
▁Ve	-9.78083
▁apareceu	-9.78104
▁1998	-9.78202
ini	-9.78226
▁taxa	-9.7823
▁tentativa	-9.78232
▁posto	-9.7826
Me	-9.78323
▁Daniel	-9.78333
▁pós	-9.78367
▁realizou	-9.78487
▁2001	-9.78515
nas	-9.78571
ham	-9.78663
▁deixar	-9.7867
ard	-9.78674
▁técnica	-9.78699
▁metal	-9.78726
▁pessoal	-9.78773
▁príncipe	-9.78811
▁Paulista	-9.78834
▁versões	-9.78857
▁haviam	-9.78878
▁Jean	-9.78921
▁políticas	-9.78927
▁tradição	-9.78964
▁Militar	-9.79009
são	-9.79102
single	-9.79109
▁efeitos	-9.79231
▁prata	-9.79231
▁cores	-9.793
▁anunciado	-9.79332
iu	-9.79555
Y	-9.79558
▁inclusive	-9.7957
▁Nesse	-9.79609
mann	-9.79627
pt	-9.79671
ud	-9.79688
▁Charles	-9.79712
▁Ser	-9.79726
▁viagem	-9.79764
▁prisão	-9.79815
_	-9.79837
"",	-9.79864
▁navio	-9.79943
ras	-9.80011
▁entrar	-9.80059
▁respectivamente	-9.80064
▁motor	-9.80085
▁experiência	-9.80186
americana	-9.80216
▁Peter	-9.80277
▁artigo	-9.80283
▁derrota	-9.80344
▁dado	-9.80403
▁fi	-9.80404
Bo	-9.80459
▁descoberta	-9.80508
▁eleição	-9.80568
▁bispo	-9.80692
como	-9.80699
▁essas	-9.8075
▁doença	-9.80789
▁semelhante	-9.80799
▁mão	-9.80802
In	-9.80834
▁70	-9.8091
tic	-9.8106
▁Rua	-9.81077
▁mu	-9.81149
bal	-9.81167
▁2019	-9.81168
▁respeito	-9.81214
▁guarda	-9.81259
▁alguma	-9.8133
▁Série	-9.81388
▁passagem	-9.81389
▁tecnologia	-9.81519
stro	-9.81556
▁particular	-9.81621
han	-9.81727
▁serviu	-9.81821
▁médico	-9.81866
▁vale	-9.81903
rie	-9.81927
▁devem	-9.81948
▁projetos	-9.82087
▁internacionais	-9.82119
▁Sha	-9.82131
▁Seus	-9.82171
▁análise	-9.82186
bor	-9.82193
▁diretamente	-9.82202
▁We	-9.82232
ral	-9.82353
▁Ku	-9.82358
▁futebolista	-9.82388
▁ações	-9.82426
▁construída	-9.82456
▁0,0	-9.82517
▁consiste	-9.82556
▁sonora	-9.82557
▁utilizada	-9.82597
▁saída	-9.82607
▁temperatura	-9.8262
▁visão	-9.82651
▁objeto	-9.82728
▁histórico	-9.82826
▁reino	-9.82917
▁alcançou	-9.8298
▁asteroide	-9.83024
▁pequenas	-9.83053
cal	-9.83107
▁razão	-9.83138
▁eu	-9.83225
▁conquista	-9.83321
▁passaram	-9.83328
▁Novembro	-9.83487
▁2001,	-9.83672
▁voz	-9.8384
▁ga	-9.8388
▁treinador	-9.83884
▁instituição	-9.83889
tin	-9.83906
▁Lista	-9.83958
11	-9.84018
▁branco	-9.8402
ac	-9.84095
Con	-9.84099
▁políticos	-9.84126
od	-9.84181
▁Que	-9.84188
▁madeira	-9.84311
▁municipal	-9.84358
bri	-9.84359
▁dança	-9.84378
▁Love	-9.84404
▁ficar	-9.84481
▁poucos	-9.84514
▁imagens	-9.8454
▁usa	-9.84601
pu	-9.8462
cy	-9.84662
▁famoso	-9.84665
▁peso	-9.84707
▁Assembleia	-9.84762
uro	-9.84769
gui	-9.84787
▁Rosa	-9.84891
lle	-9.84918
▁Ciências	-9.84942
cri	-9.84953
▁Luiz	-9.84975
▁Pode	-9.85073
▁lugares	-9.85075
ica	-9.8513
tre	-9.8514
▁palácio	-9.85149
▁municípios	-9.85173
▁Batalha	-9.85262
▁valores	-9.85298
▁afirma	-9.8537
▁totalmente	-9.8538
▁drama	-9.85396
▁aconteceu	-9.85435
q	-9.85437
ü	-9.85455
nde	-9.85591
▁literatura	-9.85617
ide	-9.85657
To	-9.85663
▁informação	-9.85667
one	-9.85704
▁extensão	-9.85753
▁Congresso	-9.85958
nga	-9.85976
▁Martin	-9.85997
▁Mor	-9.86044
▁Y	-9.86227
▁candidato	-9.86274
▁rua	-9.86288
▁Agosto	-9.86332
mina	-9.86346
xo	-9.86399
18	-9.86441
▁fontes	-9.86498
▁conhecidos	-9.86581
▁necessidade	-9.86652
▁nessa	-9.86652
corre	-9.86675
▁próxima	-9.86685
cor	-9.86769
▁cena	-9.86775
▁2002	-9.86787
▁City	-9.86826
▁Lima	-9.86862
▁críticas	-9.86974
▁Catarina	-9.87004
▁pintura	-9.87072
▁plantas	-9.87118
▁indivíduos	-9.87167
▁ha	-9.8718
▁nacionais	-9.87187
▁capaz	-9.87231
▁encontram	-9.87236
▁pressão	-9.8729
▁posse	-9.87357
▁Es	-9.87434
▁perda	-9.87469
ct	-9.87472
▁Teatro	-9.8749
▁dar	-9.87549
▁For	-9.87617
▁2019,	-9.87623
▁fizeram	-9.87711
ung	-9.87754
▁resposta	-9.87789
▁programação	-9.87918
▁lo	-9.8792
▁física	-9.87946
▁Distrito	-9.87959
▁quarta	-9.87966
▁recorde	-9.87984
▁refere	-9.87999
24	-9.88012
▁reforma	-9.88026
▁Mac	-9.88092
ney	-9.88235
▁reinado	-9.8826
br	-9.88291
dio	-9.88301
▁quilômetros	-9.88349
vin	-9.88372
ón	-9.88397
mu	-9.88405
▁Devido	-9.88433
▁DVD	-9.88465
line	-9.88573
Co	-9.88584
▁desempenho	-9.88661
▁Áustria	-9.88841
▁Federação	-9.88876
▁Alegre	-9.88893
ak	-9.889
▁Conde	-9.89021
▁domínio	-9.89027
▁90	-9.89126
▁velho	-9.89205
▁contato	-9.89224
▁contexto	-9.89244
yo	-9.89249
▁2002,	-9.89286
▁porta	-9.89308
▁fazem	-9.89317
Mar	-9.89405
vis	-9.89418
▁musicais	-9.89455
▁intitulado	-9.8949
▁Ber	-9.89497
▁Isabel	-9.89538
▁nada	-9.89615
ö	-9.89668
▁operações	-9.89699
▁bronze	-9.89732
bar	-9.89767
▁polícia	-9.89834
▁Richard	-9.89836
▁conflito	-9.89911
dora	-9.89913
▁Star	-9.89971
▁pequenos	-9.90023
▁Pereira	-9.90057
▁grego	-9.90111
▁Fu	-9.9014
▁dizendo	-9.90177
▁Men	-9.90257
16	-9.90316
▁Che	-9.90353
▁obter	-9.90508
▁desenvolvido	-9.90526
way	-9.90536
lé	-9.90702
cto	-9.9071
Na	-9.90759
▁Paraná	-9.90765
▁vinte	-9.90886
▁Outros	-9.9094
▁Geral	-9.90972
▁extra	-9.91034
▁gravado	-9.91053
▁Eduardo	-9.91108
▁Thomas	-9.91127
▁estrelas	-9.91152
ara	-9.91166
▁jogar	-9.91282
qu	-9.91304
nça	-9.91321
▁Roberto	-9.91401
▁trilha	-9.91401
▁células	-9.91401
▁reais	-9.91462
▁palco	-9.91481
▁temas	-9.91562
▁alemã	-9.91564
▁32	-9.91625
▁igual	-9.91727
▁estas	-9.91766
▁histórias	-9.91799
▁equipa	-9.91813
";	-9.91861
▁Dezembro	-9.91863
▁Castelo	-9.91904
▁comportamento	-9.91913
▁2011.	-9.92073
▁alunos	-9.92084
▁completamente	-9.92111
▁evitar	-9.92118
▁mudanças	-9.92138
▁letras	-9.92188
ser	-9.92288
sion	-9.92321
▁Comissão	-9.92334
▁castelo	-9.92364
▁anteriormente	-9.92451
▁bo	-9.92453
▁casas	-9.92466
▁questão	-9.9247
▁operação	-9.92507
▁expressão	-9.92513
▁geração	-9.9252
▁Mer	-9.92524
▁conde	-9.92532
ín	-9.92547
ion	-9.92554
▁Awards	-9.92598
▁Companhia	-9.9261
▁=	-9.92647
té	-9.92649
▁Salvador	-9.92653
ot	-9.92662
▁produto	-9.92684
▁Har	-9.92712
▁botânico	-9.92746
ves	-9.92747
▁esquerda	-9.92799
▁b	-9.92802
ire	-9.92988
▁estrada	-9.93
▁Je	-9.93006
▁ilhas	-9.93028
ä	-9.93035
▁Portuguesa	-9.93059
▁apresentação	-9.93092
Ro	-9.93125
▁comuns	-9.93139
tivos	-9.93142
can	-9.93149
cro	-9.93191
▁rainha	-9.93323
▁35	-9.9336
▁Estes	-9.93373
wi	-9.93386
▁Par	-9.93412
▁baseada	-9.93413
▁humano	-9.93442
▁proposta	-9.93515
▁sala	-9.93519
▁Tribunal	-9.93532
▁carta	-9.9357
▁autores	-9.93573
ts	-9.93679
▁apresentado	-9.93695
▁daquele	-9.93717
▁Van	-9.93762
▁sabe	-9.93765
▁finais	-9.93772
▁método	-9.93825
▁substituído	-9.93839
▁deveria	-9.93864
▁fundo	-9.93867
▁Nesta	-9.93923
nto	-9.93931
▁corrida	-9.93998
▁formar	-9.94049
▁iria	-9.94092
▁sal	-9.94138
▁comandante	-9.94292
▁Pri	-9.94348
▁religião	-9.94358
▁Civil	-9.94361
▁mãos	-9.94379
▁Contudo	-9.94396
▁concurso	-9.94397
▁Católica	-9.94482
▁publicação	-9.94516
▁liberdade	-9.94535
▁declarou	-9.94571
ix	-9.94597
tus	-9.94643
▁Sociedade	-9.94765
lina	-9.94778
▁Mag	-9.94796
▁Vo	-9.94796
▁apresentar	-9.94818
17	-9.94852
▁feitas	-9.94858
▁fala	-9.94935
iza	-9.94944
▁ajudar	-9.95029
bilidade	-9.9506
▁usados	-9.95073
35	-9.95151
▁imprensa	-9.95246
pé	-9.95258
99	-9.95286
▁Faz	-9.95289
▁Todos	-9.95297
▁digital	-9.95324
▁Ouro	-9.95419
▁Logo	-9.95467
▁Estação	-9.95484
ssi	-9.95513
▁História	-9.95529
ek	-9.95533
▁Ásia	-9.95554
▁fundação	-9.95582
▁«	-9.95586
▁paz	-9.95611
▁Campo	-9.95657
▁Ya	-9.95665
▁visita	-9.9569
▁manteve	-9.95728
▁línguas	-9.95771
▁Israel	-9.95794
izou	-9.95796
▁t	-9.9584
▁casal	-9.95872
▁piloto	-9.95873
▁ve	-9.95899
▁gravação	-9.95905
▁escolha	-9.95926
▁mistura	-9.95956
▁simplesmente	-9.95963
ele	-9.9602
▁Gra	-9.96033
▁Tro	-9.96054
▁acaba	-9.96067
▁Isto	-9.96113
▁Ali	-9.96159
▁Ilha	-9.96253
▁começo	-9.96321
▁André	-9.96432
▁fogo	-9.96474
▁2003,	-9.96538
▁Oscar	-9.96551
▁ciclo	-9.96564
ido	-9.96573
ula	-9.96602
▁clima	-9.96664
▁novela	-9.96732
▁instituições	-9.96739
tação	-9.96767
▁formou	-9.96778
▁encontrado	-9.96843
▁Afonso	-9.96863
▁composição	-9.96865
▁1.	-9.96935
▁Sta	-9.96969
▁humana	-9.96975
ure	-9.96984
op	-9.97035
▁meia	-9.97075
tada	-9.9708
▁comédia	-9.97085
▁chegada	-9.97106
05	-9.9712
ias	-9.97142
▁realidade	-9.9716
▁Cultura	-9.97232
▁precisa	-9.97279
▁ambas	-9.97307
▁crise	-9.97311
tis	-9.97342
▁morto	-9.97373
▁Existem	-9.97406
▁navios	-9.97437
pon	-9.97438
90	-9.97453
▁capela	-9.97457
▁roteiro	-9.9749
▁parque	-9.97569
▁produzida	-9.97627
▁ganhar	-9.97687
▁profissionais	-9.97762
▁décadas	-9.97768
era	-9.97828
mbo	-9.97838
▁deixando	-9.97902
▁britânica	-9.97904
▁2.	-9.97909
▁Wi	-9.97912
▁resto	-9.97927
del	-9.97939
ling	-9.97995
26	-9.98002
▁f	-9.9801
▁so	-9.98033
▁vencedor	-9.98061
▁recebe	-9.9807
▁Bel	-9.98073
ting	-9.98096
▁Linha	-9.98262
▁g	-9.9835
▁planeta	-9.98394
▁retornou	-9.98411
▁níveis	-9.98421
▁estudou	-9.98466
▁verão	-9.98481
▁letra	-9.98484
▁reconhecimento	-9.98531
rado	-9.98567
▁Palácio	-9.98656
▁presentes	-9.98784
▁independência	-9.98971
▁naquele	-9.98973
▁produzir	-9.99025
▁im	-9.99042
▁jogou	-9.99161
▁acidente	-9.99169
▁fãs	-9.99223
▁á	-9.99234
lon	-9.99252
▁curta	-9.99274
▁ligação	-9.99299
▁Sam	-9.99343
▁desses	-9.99378
ador	-9.99383
04	-9.99443
rre	-9.99448
▁famílias	-9.99495
▁Artes	-9.9958
▁conforme	-9.99621
▁Social	-9.99698
▁Ab	-9.99702
▁linguagem	-9.99711
sk	-9.99753
sca	-9.99763
▁difícil	-9.99879
nho	-9.99919
▁Estádio	-9.9998
▁fundamental	-10.0001
▁dentre	-10.0004
ld	-10.0013
▁multi	-10.0013
▁topo	-10.0014
29	-10.0016
▁caça	-10.0017
▁etapa	-10.0022
▁(3	-10.0023
▁turno	-10.0028
28	-10.0042
27	-10.0043
▁retorno	-10.0047
▁Ad	-10.005
75	-10.0053
ér	-10.0055
▁Ferro	-10.006
21	-10.0066
▁Vitória	-10.007
cre	-10.0074
▁voo	-10.0077
pen	-10.0079
▁500	-10.0081
▁memória	-10.0083
▁Cada	-10.0086
Mo	-10.0088
▁ministro	-10.0089
▁Justiça	-10.0095
▁Er	-10.0101
▁escrever	-10.0107
▁Fevereiro	-10.0108
▁grau	-10.0112
eu	-10.0112
port	-10.0112
▁surgiu	-10.0116
▁quinta	-10.0122
gos	-10.0132
▁Alexandre	-10.0133
▁técnicas	-10.0134
▁mata	-10.0139
ent	-10.0142
▁coisas	-10.0144
▁disputou	-10.0144
▁sofreu	-10.0144
▁Ita	-10.0149
dra	-10.0152
▁conseguir	-10.0159
nica	-10.0164
▁modelos	-10.0184
▁pop	-10.0185
▁ficando	-10.0187
cional	-10.0189
▁conteúdo	-10.019
ft	-10.0199
▁desenho	-10.0203
▁chega	-10.0208
▁cenas	-10.022
22	-10.0222
▁resistência	-10.0224
▁Arte	-10.0225
nder	-10.0227
ngo	-10.0232
▁mídia	-10.0234
▁Antonio	-10.0245
45	-10.0249
▁Tor	-10.025
▁contou	-10.025
▁aberto	-10.0251
eta	-10.0251
▁shows	-10.0251
▁Qui	-10.0252
65	-10.0252
▁honra	-10.0257
▁Don	-10.0257
▁nascido	-10.0261
▁levar	-10.0263
▁menores	-10.0265
▁Estadual	-10.0268
tch	-10.0277
▁pedra	-10.0278
▁sim	-10.0278
ato	-10.0279
▁criança	-10.0281
▁vão	-10.0281
▁números	-10.029
▁Black	-10.0294
▁Park	-10.0294
▁1997	-10.0295
▁Nações	-10.0304
▁fundador	-10.0308
mes	-10.0309
▁Ocidental	-10.0311
▁Revolução	-10.0315
▁oposição	-10.0316
▁dizer	-10.0319
Vi	-10.0321
▁setor	-10.0322
▁expansão	-10.0324
▁Disney	-10.0324
▁sinal	-10.0331
ple	-10.0337
▁trono	-10.0341
▁+	-10.0341
▁Col	-10.0347
38	-10.0356
▁azul	-10.0358
▁sejam	-10.0362
▁paulista	-10.0363
▁pedido	-10.0363
tia	-10.0365
▁destes	-10.037
06	-10.0375
▁diante	-10.0377
▁ci	-10.038
▁Educação	-10.0382
▁von	-10.0383
ph	-10.0387
▁tenta	-10.0391
48	-10.0396
▁2010.	-10.0404
▁brasileiros	-10.0407
▁Ferreira	-10.0408
nca	-10.0412
zar	-10.0414
▁quinto	-10.0416
▁frequência	-10.0423
uri	-10.0425
▁galáxia	-10.0427
ía	-10.0438
▁Marco	-10.0444
▁Hall	-10.0447
▁interna	-10.0449
▁Mc	-10.0456
▁materiais	-10.0458
lá	-10.0459
▁transmissão	-10.0462
▁nota	-10.0463
86	-10.0472
nk	-10.0472
▁cursos	-10.0475
bil	-10.0477
07	-10.048
ona	-10.0481
▁relacionamento	-10.0483
len	-10.0491
▁Washington	-10.0492
▁russo	-10.0492
▁dura	-10.0495
So	-10.0511
▁ascensão	-10.0515
▁objetos	-10.0515
▁especiais	-10.0517
pri	-10.052
▁capa	-10.0524
85	-10.0525
▁Soviética	-10.0533
▁assinou	-10.0535
presidente	-10.0535
▁princípio	-10.0536
▁ju	-10.0546
▁1990,	-10.0552
▁bandeira	-10.0555
▁custo	-10.0559
tsu	-10.0562
gna	-10.0567
▁West	-10.0573
ns	-10.0573
▁Ger	-10.0574
▁1990	-10.0577
age	-10.058
▁can	-10.0582
Ta	-10.0584
▁inferior	-10.0585
ndi	-10.0591
▁direita	-10.0591
dão	-10.0592
▁Algumas	-10.0598
▁comerciais	-10.06
▁exterior	-10.0603
▁arquitetura	-10.0606
▁2012.	-10.0608
37	-10.0617
ye	-10.0619
▁tentou	-10.0629
▁Sch	-10.0631
▁segue	-10.0637
▁editora	-10.0637
47	-10.0638
▁atingiu	-10.064
berg	-10.0641
▁2007.	-10.0643
▁atuação	-10.0644
▁seriam	-10.0646
▁filosofia	-10.0648
▁complexo	-10.065
▁críticos	-10.0654
▁Sistema	-10.0656
▁Castro	-10.0658
Eu	-10.066
▁compra	-10.0668
▁ciência	-10.0669
Ha	-10.067
▁pertence	-10.0681
▁variedade	-10.0695
▁edições	-10.0696
▁estações	-10.07
iro	-10.0707
▁du	-10.0713
ren	-10.0719
&	-10.0727
▁gestão	-10.0728
▁Departamento	-10.0736
08	-10.0736
Ra	-10.0738
Do	-10.0742
▁ocasião	-10.0744
▁código	-10.0744
▁advogado	-10.0747
riam	-10.0751
▁construir	-10.0755
▁inglesa	-10.076
▁Mark	-10.0762
▁indicado	-10.0763
▁portugueses	-10.0768
▁vendas	-10.0768
▁Trans	-10.0773
aceae	-10.0776
for	-10.0777
▁passageiros	-10.0786
▁denominado	-10.0786
sti	-10.0787
▁chegando	-10.0792
▁Ze	-10.0795
ella	-10.0795
▁imp	-10.08
Q	-10.0801
▁aceita	-10.0802
▁Augusto	-10.0802
▁ataques	-10.0802
▁bar	-10.0805
▁procura	-10.0808
▁chama	-10.0811
sia	-10.0812
▁Suécia	-10.0813
▁golpe	-10.0814
bol	-10.0826
▁Brown	-10.0827
ava	-10.0832
▁festa	-10.0832
▁Á	-10.0836
▁volume	-10.0837
bio	-10.0839
▁séculos	-10.084
gens	-10.0848
▁Verde	-10.0853
ins	-10.0853
▁movimentos	-10.0858
▁2008.	-10.0864
▁sin	-10.0868
▁Gal	-10.087
▁vaga	-10.0873
09	-10.0875
▁natal	-10.0876
the	-10.0884
▁sol	-10.0889
▁Egito	-10.089
▁Rádio	-10.0896
bro	-10.09
▁Guilherme	-10.0909
▁Gua	-10.0917
!"	-10.0917
rin	-10.0917
▁Miss	-10.0919
▁saiu	-10.0922
▁titular	-10.0922
zer	-10.0931
▁exposição	-10.0934
23	-10.0944
logia	-10.0944
▁Lee	-10.0947
▁Chile	-10.0949
▁certo	-10.095
-2	-10.0958
▁romano	-10.0962
sur	-10.0964
▁dando	-10.0965
til	-10.0968
▁tornaram	-10.097
▁colocado	-10.097
▁museu	-10.0975
▁Marinha	-10.0979
▁Is	-10.0984
icamente	-10.0988
▁VI	-10.1008
▁ferro	-10.1011
▁saber	-10.1012
▁alemães	-10.1012
▁papa	-10.1015
▁fazia	-10.1016
64	-10.1017
▁suficiente	-10.1021
▁Smith	-10.1022
▁possibilidade	-10.1022
▁risco	-10.1025
14	-10.1029
▁Ke	-10.1032
nu	-10.1034
36	-10.1039
▁exibido	-10.1054
▁venda	-10.1056
39	-10.1067
▁campos	-10.1069
▁Coreia	-10.1073
▁Suíça	-10.1074
▁processos	-10.1074
▁japonesa	-10.1076
▁liderança	-10.1082
▁1996	-10.1082
▁questões	-10.1085
net	-10.1088
▁participantes	-10.109
▁inicia	-10.1098
▁Des	-10.11
▁Foram	-10.11
▁estudantes	-10.11
▁voltar	-10.1106
▁destino	-10.1118
▁levando	-10.1119
▁industrial	-10.1125
gg	-10.113
gas	-10.1132
▁Superior	-10.1132
▁populares	-10.1135
▁preso	-10.1136
|	-10.1139
▁cabo	-10.1139
▁rios	-10.1141
▁sangue	-10.1142
▁rápido	-10.1147
▁terem	-10.1148
▁Cer	-10.1153
▁Constituição	-10.1154
▁Ter	-10.1159
▁antigas	-10.116
sch	-10.1162
▁Bal	-10.1168
gh	-10.1169
34	-10.1178
ero	-10.1179
▁Peru	-10.118
▁Yu	-10.1182
▁consegue	-10.119
▁ja	-10.119
ford	-10.1191
▁League	-10.1199
▁Posteriormente	-10.1204
não	-10.1206
▁Ara	-10.1227
▁dessas	-10.1232
▁Europeia	-10.1239
▁matemática	-10.1244
▁fu	-10.1249
▁Suas	-10.125
▁artes	-10.1258
▁decreto	-10.1258
▁realização	-10.1262
56	-10.1264
▁anual	-10.127
▁propriedades	-10.127
▁colocação	-10.1274
▁contratado	-10.128
▁Juan	-10.1284
▁condição	-10.1285
▁aldeia	-10.1285
▁artístico	-10.1286
-18	-10.1287
▁Carvalho	-10.1298
▁vive	-10.1299
▁1980	-10.13
▁Pat	-10.13
▁Red	-10.1305
tória	-10.1311
dica	-10.1316
▁competições	-10.1327
13	-10.1327
▁enorme	-10.133
95	-10.1332
don	-10.1341
▁Pra	-10.1351
▁categorias	-10.1358
▁aeroporto	-10.1359
▁escolhido	-10.1361
▁Fundação	-10.1362
▁Gomes	-10.1362
▁capitão	-10.1363
▁encontrados	-10.1369
▁realizadas	-10.1375
68	-10.1376
▁Sousa	-10.138
▁motivo	-10.1381
▁XVIII	-10.1382
ata	-10.1387
▁viu	-10.139
▁King	-10.139
▁Leão	-10.1391
33	-10.1393
off	-10.1396
▁exibida	-10.1397
▁pé	-10.1405
▁disputada	-10.1407
▁XVI	-10.1412
▁localidade	-10.1412
São	-10.1417
▁moderna	-10.1425
▁Colégio	-10.1433
▁he	-10.1433
▁possuía	-10.1436
▁Mesmo	-10.1437
▁micro	-10.1437
tta	-10.1441
mais	-10.1446
▁próprios	-10.1448
▁Duque	-10.145
lí	-10.1451
▁identidade	-10.1451
▁recebido	-10.1453
▁entra	-10.1453
Be	-10.1456
▁provas	-10.1457
íveis	-10.1458
59	-10.1459
tivas	-10.1463
▁Hot	-10.1466
▁nascimento	-10.1472
▁Muitos	-10.1472
▁hora	-10.1473
▁vermelho	-10.1479
Li	-10.1479
▁Bor	-10.1481
▁desenvolver	-10.1481
tividade	-10.1482
▁2016.	-10.1487
▁soma	-10.1492
▁águas	-10.1493
▁coleção	-10.1502
▁mortos	-10.1509
mb	-10.1509
▁Alberto	-10.1511
cher	-10.1513
tte	-10.1516
▁denominada	-10.152
▁redes	-10.1527
▁queria	-10.1529
▁semi	-10.1531
ges	-10.1534
▁ce	-10.1535
01	-10.1536
▁audiência	-10.154
ício	-10.1542
fra	-10.1543
lie	-10.1543
▁Berlim	-10.1558
55	-10.1562
▁impacto	-10.1562
▁1965	-10.1565
▁apresentam	-10.1568
▁Am	-10.1569
SP	-10.1573
est	-10.1573
76	-10.1575
▁desenvolveu	-10.1578
▁realizados	-10.1579
▁sobretudo	-10.1583
ima	-10.1585
▁Frank	-10.1589
▁All	-10.1593
▁rodada	-10.1594
Te	-10.1599
31	-10.1599
▁Rodrigues	-10.1601
▁tropical	-10.1608
66	-10.1609
88	-10.161
▁realmente	-10.1612
feira	-10.1615
▁mudar	-10.1616
▁individual	-10.1617
▁2009.	-10.1618
▁tradicionais	-10.1621
▁tentar	-10.1622
▁templo	-10.1624
78	-10.1627
▁leis	-10.1628
pp	-10.1632
pin	-10.1636
▁aqueles	-10.1643
▁Avenida	-10.1645
▁chegaram	-10.1649
rico	-10.165
▁poeta	-10.1654
▁vencer	-10.166
pia	-10.166
▁viver	-10.1661
▁porto	-10.1663
up	-10.1669
▁School	-10.1672
▁diferença	-10.168
▁relativamente	-10.168
▁máximo	-10.1683
Car	-10.1686
▁César	-10.169
▁ocidental	-10.1692
▁feitos	-10.1692
▁elevado	-10.1693
▁ameaça	-10.1695
▁ge	-10.1697
▁Branco	-10.1698
ther	-10.1698
▁Del	-10.1705
cá	-10.1706
ces	-10.1708
▁2014.	-10.171
▁Dan	-10.1711
cida	-10.1711
spe	-10.1713
▁indica	-10.1728
cra	-10.173
▁estudar	-10.173
ction	-10.1732
▁recém	-10.1736
▁planos	-10.1743
▁rea	-10.1756
Ho	-10.1761
▁ponte	-10.1761
▁satélite	-10.1762
▁utilizados	-10.1763
ier	-10.1771
12	-10.1773
▁Un	-10.1776
field	-10.1778
▁japonês	-10.1779
49	-10.1779
▁arma	-10.1779
▁1980,	-10.178
Lo	-10.1781
▁Dois	-10.179
▁flores	-10.1795
rum	-10.1796
▁Shi	-10.1797
46	-10.1802
▁normal	-10.1804
▁delas	-10.1807
▁Ed	-10.1813
69	-10.1814
67	-10.182
kin	-10.1825
03	-10.1828
zu	-10.1829
▁deixa	-10.1832
▁promover	-10.1833
▁1970	-10.1836
▁tomar	-10.1837
▁hospital	-10.1838
▁cenário	-10.184
▁ti	-10.1842
▁It	-10.1842
rei	-10.1843
ps	-10.1851
tim	-10.1852
▁proteção	-10.1855
▁pintor	-10.1857
▁(1	-10.1862
▁Bur	-10.1862
▁Banco	-10.1864
44	-10.187
▁y	-10.1872
▁vocalista	-10.1872
▁k	-10.1873
▁Tur	-10.1874
Da	-10.1877
rina	-10.1878
ações	-10.1882
▁espanhola	-10.1884
▁prêmios	-10.1893
▁Romano	-10.1897
▁vê	-10.1898
▁Gil	-10.1901
osa	-10.1903
▁facto	-10.191
▁trata	-10.1918
▁Força	-10.1919
97	-10.1925
▁Far	-10.1926
ok	-10.193
▁completo	-10.1933
Po	-10.1935
▁National	-10.1936
rea	-10.1939
▁software	-10.194
54	-10.1941
87	-10.1942
▁res	-10.1943
▁Cho	-10.1943
▁ru	-10.1947
ante	-10.1951
eiros	-10.1951
▁duração	-10.1952
▁disponível	-10.1952
▁residência	-10.1952
▁fundou	-10.1955
▁autoridades	-10.1956
▁núcleo	-10.1959
▁mi	-10.196
▁cal	-10.196
ministro	-10.1961
ró	-10.1964
pos	-10.1973
▁termina	-10.1979
57	-10.198
▁fra	-10.1981
gon	-10.1983
lega	-10.1983
▁ficaram	-10.1986
▁Hospital	-10.199
▁Três	-10.1991
▁plataforma	-10.1994
pla	-10.2001
▁Grécia	-10.2002
▁evolução	-10.2004
▁Henry	-10.2017
Mi	-10.2018
▁histórica	-10.2018
gado	-10.2023
clu	-10.2024
▁2013.	-10.2027
pto	-10.2033
▁Popular	-10.2034
▁Dias	-10.2035
lado	-10.2037
bas	-10.2038
▁ruas	-10.2042
▁mono	-10.2049
▁quadro	-10.2058
ux	-10.2059
▁econômica	-10.2062
▁veículos	-10.2062
▁artigos	-10.2063
▁revolta	-10.207
▁chamados	-10.2072
▁sair	-10.2072
▁2015.	-10.2076
▁Outro	-10.2076
▁associação	-10.2078
▁Joaquim	-10.2085
▁fo	-10.2086
▁chamou	-10.2087
77	-10.2088
▁característica	-10.209
▁atingir	-10.209
nge	-10.21
▁potencial	-10.2111
▁be	-10.2112
▁guitarrista	-10.2112
ctor	-10.2119
▁mestre	-10.212
▁universidade	-10.2126
▁ácido	-10.2126
▁atuais	-10.213
Pe	-10.2135
96	-10.214
ística	-10.2143
▁pesquisas	-10.2144
58	-10.2147
▁regras	-10.2153
79	-10.2154
▁Nu	-10.2161
▁joga	-10.2161
▁lança	-10.2163
▁recentemente	-10.2167
▁estabeleceu	-10.217
▁empresário	-10.2172
tti	-10.2174
stre	-10.2177
▁líderes	-10.2178
▁pensamento	-10.2186
▁Jack	-10.2188
▁Cre	-10.2191
▁36	-10.22
▁entretanto	-10.2203
▁verde	-10.2204
▁particularmente	-10.2205
▁Q	-10.221
▁públicos	-10.2215
▁poderes	-10.2222
nis	-10.2223
53	-10.223
▁tomou	-10.223
esta	-10.223
▁promovido	-10.2231
▁públicas	-10.2231
nal	-10.2239
▁1995	-10.2248
vio	-10.225
▁1999,	-10.2254
▁utilização	-10.2254
▁Show	-10.2255
▁constante	-10.2262
▁regional	-10.2264
▁execução	-10.2268
▁viveu	-10.227
▁Natal	-10.2276
▁man	-10.2277
▁cara	-10.2278
▁seguido	-10.2279
▁graças	-10.2287
▁Joseph	-10.229
▁cm	-10.2291
▁encontro	-10.2292
▁(17	-10.2297
▁engenheiro	-10.2298
▁posições	-10.2298
89	-10.23
▁Espírito	-10.2305
▁aspectos	-10.2305
▁solução	-10.2306
tter	-10.2307
▁0.	-10.2307
ong	-10.2308
▁Leste	-10.2314
▁romanos	-10.2316
▁Tar	-10.2317
▁1994	-10.2317
▁45	-10.2322
▁fortes	-10.2323
▁nós	-10.2324
▁explica	-10.2324
ice	-10.2327
▁imediatamente	-10.2327
ônio	-10.2334
▁viria	-10.2336
▁Villa	-10.2341
▁princesa	-10.2344
▁clássico	-10.2346
▁Jan	-10.2352
▁Mato	-10.2355
▁oferece	-10.2355
▁EP	-10.236
Di	-10.2368
▁físico	-10.2375
▁corre	-10.2382
ética	-10.2385
▁praticamente	-10.2389
uca	-10.239
tec	-10.239
▁cerimônia	-10.2393
hr	-10.2396
▁definição	-10.2401
▁Ch	-10.2404
▁organizado	-10.2405
lli	-10.2407
š	-10.2412
83	-10.2419
▁infância	-10.2429
▁Campos	-10.243
▁atletas	-10.2431
▁cima	-10.2431
▁Ven	-10.2436
32	-10.2437
▁podendo	-10.2437
=	-10.2439
▁aumentar	-10.2439
▁preto	-10.244
bert	-10.2441
dis	-10.2448
▁convidado	-10.2458
▁originais	-10.2458
▁prédio	-10.2459
ach	-10.246
▁banco	-10.2473
sas	-10.2479
fu	-10.248
▁historiador	-10.248
▁Almeida	-10.2484
▁tratado	-10.2488
▁FM	-10.2492
▁canadense	-10.2503
▁invasão	-10.2506
▁cre	-10.2506
63	-10.2508
▁1998,	-10.251
▁representação	-10.2512
▁bateria	-10.2514
▁varia	-10.2514
có	-10.2516
▁1992	-10.2516
▁33	-10.2523
▁1960	-10.2529
▁religiosa	-10.2531
▁torre	-10.2532
▁secretário	-10.2534
▁Praia	-10.2534
▁juntos	-10.2535
▁documentos	-10.2537
▁sexual	-10.2538
ah	-10.2539
▁Jackson	-10.2544
ários	-10.2547
▁insetos	-10.2549
▁caráter	-10.2556
▁tropicais	-10.2561
▁investigação	-10.257
nco	-10.2575
dri	-10.2576
▁órgão	-10.2578
ani	-10.2584
▁nave	-10.2594
lus	-10.2595
cker	-10.2602
rica	-10.2604
cta	-10.2606
▁usuários	-10.2609
▁estréia	-10.2612
▁símbolo	-10.2612
▁carga	-10.2612
▁Alto	-10.2614
▁Saúde	-10.2614
▁violência	-10.2614
▁utiliza	-10.2619
▁FIFA	-10.2624
Ar	-10.2628
▁Fra	-10.2634
dé	-10.2638
▁organizações	-10.2643
▁fins	-10.2648
▁General	-10.2649
▁trabalhadores	-10.265
▁músico	-10.265
▁tu	-10.2651
▁ideias	-10.2651
▁pista	-10.2652
tive	-10.2654
41	-10.2655
▁terá	-10.2656
▁franceses	-10.2656
▁Praça	-10.2658
ist	-10.2659
_2	-10.2665
▁meta	-10.2668
▁Belo	-10.2669
ens	-10.267
▁fossem	-10.2673
▁FC	-10.2674
▁verdadeiro	-10.2675
▁qui	-10.2675
▁vitórias	-10.2677
spec	-10.2678
▁famosa	-10.268
Os	-10.2682
gro	-10.2684
▁aplicação	-10.2684
▁aqui	-10.2685
▁pele	-10.2687
▁margem	-10.269
▁kg	-10.2695
rí	-10.2695
▁ganha	-10.2697
▁Vol	-10.2699
▁dis	-10.2704
dro	-10.2708
▁Lin	-10.2713
▁romana	-10.2713
71	-10.2714
74	-10.2726
▁videoclipe	-10.2729
▁estruturas	-10.2742
mbi	-10.2742
kh	-10.2743
▁computador	-10.2743
▁Irlanda	-10.2744
▁pra	-10.2745
▁elemento	-10.2746
ey	-10.2746
▁animal	-10.2746
▁equipamentos	-10.275
▁culturais	-10.2753
lly	-10.2755
▁negócios	-10.2756
▁lago	-10.2756
cada	-10.2757
▁sai	-10.2759
poli	-10.276
▁especificamente	-10.2761
▁florestas	-10.2763
▁Will	-10.2764
▁regular	-10.2767
▁Cabo	-10.277
▁espírito	-10.2775
▁bu	-10.2783
ub	-10.2786
▁Entertainment	-10.2793
▁estabelecimento	-10.2793
van	-10.2795
▁encontrou	-10.2801
dura	-10.2802
▁Ribeiro	-10.2803
▁bandas	-10.2806
▁edifícios	-10.2809
▁go	-10.2811
tores	-10.2816
▁She	-10.282
▁territórios	-10.2823
▁Senhor	-10.2823
▁Sun	-10.2833
-20	-10.2833
▁telenovela	-10.2835
▁Príncipe	-10.2838
▁Scott	-10.2839
▁Hoje	-10.2839
kov	-10.2844
▁gás	-10.2844
tido	-10.2857
pur	-10.2858
rais	-10.2859
▁Louis	-10.2859
▁Min	-10.2859
▁Jardim	-10.2863
tha	-10.2863
▁coroa	-10.2863
98	-10.2864
án	-10.2864
▁1970,	-10.2868
▁segundos	-10.2874
lf	-10.2882
illa	-10.2885
▁Filipe	-10.2892
94	-10.2893
▁Senado	-10.2895
▁(2	-10.2896
mal	-10.2899
▁muda	-10.2901
▁âmbito	-10.2905
▁Brasília	-10.2907
▁povos	-10.2912
▁corrente	-10.2914
▁1955	-10.2914
▁Ricardo	-10.292
▁judeus	-10.2923
▁corresponde	-10.2923
▁funcionários	-10.2935
▁face	-10.2936
▁Ceará	-10.2945
▁referir	-10.2945
gel	-10.2951
▁doze	-10.2951
▁representou	-10.2958
▁Ph	-10.2959
também	-10.2966
▁bola	-10.2967
▁Football	-10.2968
lio	-10.2968
▁teste	-10.2969
▁Cinema	-10.2973
eiras	-10.2975
▁crime	-10.2978
▁considerados	-10.2981
iz	-10.2982
▁elétrica	-10.2985
gri	-10.2989
▁Estas	-10.2992
▁discurso	-10.2993
▁duque	-10.2993
▁situa	-10.2997
var	-10.2997
▁acontece	-10.3
▁instrumentos	-10.3003
43	-10.3003
▁Zo	-10.3003
rada	-10.3009
▁Chris	-10.3009
▁terreno	-10.3012
▁trás	-10.3013
▁Cra	-10.3016
▁Outra	-10.3017
▁meios	-10.3019
▁significado	-10.3021
▁perder	-10.303
▁Carl	-10.3033
▁inclinação	-10.3033
▁Im	-10.3034
▁atuar	-10.304
▁Alex	-10.304
▁Luis	-10.304
▁Latina	-10.3042
TV	-10.3045
mont	-10.3045
▁assumir	-10.3046
▁Uruguai	-10.3048
cou	-10.3052
▁talvez	-10.3054
MA	-10.3054
iva	-10.3058
▁Hy	-10.3065
tando	-10.3066
▁ri	-10.3068
▁cadeia	-10.3074
▁servir	-10.3075
▁#	-10.3084
tico	-10.3089
▁Pernambuco	-10.309
cus	-10.3101
▁fluxo	-10.3102
▁May	-10.3106
gre	-10.3107
ski	-10.311
▁defender	-10.312
Fa	-10.312
▁visual	-10.3127
▁empate	-10.3127
ual	-10.313
▁dito	-10.3135
▁excentricidade	-10.314
▁seguiu	-10.3143
▁Taça	-10.3143
▁muita	-10.3146
▁equivalente	-10.3148
▁faleceu	-10.3148
EC	-10.3152
▁temporadas	-10.3152
▁tele	-10.3156
▁tabela	-10.3157
▁2006.	-10.3158
met	-10.3158
81	-10.3159
▁quadrinhos	-10.3161
▁gravou	-10.3161
▁nu	-10.3166
gal	-10.3167
bia	-10.3168
▁trabalha	-10.317
▁Oriente	-10.3171
▁tenham	-10.3173
▁Ur	-10.3176
▁órbita	-10.3176
▁relacionados	-10.3178
▁Música	-10.3182
▁coisa	-10.3183
▁vendeu	-10.3185
61	-10.3189
▁reação	-10.3191
tino	-10.3193
-3	-10.3193
▁arquiteto	-10.3194
▁recusa	-10.3203
84	-10.3207
▁1938	-10.3212
▁ramo	-10.3212
▁Han	-10.3213
▁Ponte	-10.3214
cla	-10.3216
ez	-10.3219
▁grega	-10.322
▁Pouco	-10.3223
▁mantém	-10.3228
▁1996,	-10.3233
▁integrantes	-10.3234
▁documentário	-10.3235
▁folhas	-10.3237
▁competiu	-10.3238
▁dedicado	-10.3243
▁contendo	-10.3243
▁imperial	-10.3243
▁conhecidas	-10.3248
bin	-10.325
▁continuar	-10.3259
▁dividido	-10.3261
rk	-10.3265
burg	-10.3266
▁Polícia	-10.3267
▁produziu	-10.3271
▁Cur	-10.3275
▁entidade	-10.3277
62	-10.3279
▁clássica	-10.3282
▁Ministro	-10.3285
▁suporte	-10.3285
sha	-10.3287
▁inaugurado	-10.3289
▁extremamente	-10.3293
▁rápida	-10.3298
▁sexta	-10.3298
▁papéis	-10.33
▁flor	-10.33
▁significativa	-10.3301
▁Nessa	-10.3302
▁representante	-10.3304
▁internet	-10.3307
ete	-10.3308
▁formando	-10.3309
▁fer	-10.331
▁ocupação	-10.3311
▁juntou	-10.3312
▁direta	-10.3318
mática	-10.3319
▁coração	-10.3319
▁agricultura	-10.3321
mir	-10.3323
▁festival	-10.3324
▁pediu	-10.3324
▁000	-10.3324
▁Atlético	-10.3326
▁Oriental	-10.3326
ō	-10.3327
▁1991	-10.333
▁claro	-10.3335
▁lu	-10.3336
▁ajudou	-10.3339
mé	-10.3341
▁ônibus	-10.3344
▁dificuldades	-10.3345
fre	-10.3345
tem	-10.3346
ane	-10.3348
▁Day	-10.3349
om	-10.3351
▁Big	-10.3351
▁Europeu	-10.3356
▁Sport	-10.3358
▁matéria	-10.336
▁máxima	-10.3363
▁olhos	-10.3365
▁Então	-10.3365
har	-10.337
▁Coimbra	-10.3371
è	-10.3377
▁Sem	-10.338
▁tocar	-10.3388
▁textos	-10.3392
▁legal	-10.3396
▁similar	-10.3396
Rio	-10.3401
xe	-10.3401
_1	-10.3402
uta	-10.3403
▁europeus	-10.3404
▁descrito	-10.3407
▁an	-10.3408
▁Tele	-10.3411
ban	-10.3411
▁fixa	-10.3411
▁Madrid	-10.3412
▁frota	-10.3413
▁ativa	-10.3415
▁2017.	-10.3421
gou	-10.3423
▁artística	-10.3428
▁intenção	-10.3428
▁Bento	-10.343
ensis	-10.3431
▁casado	-10.3438
▁limite	-10.3438
▁senador	-10.3441
mia	-10.3446
Go	-10.345
▁poucas	-10.3452
El	-10.3454
▁colaboração	-10.3458
▁econômico	-10.3458
▁nordeste	-10.346
▁Alves	-10.3469
▁Barra	-10.3473
dal	-10.3475
▁milhão	-10.3479
▁medidas	-10.3481
▁acredita	-10.3483
▁War	-10.3484
▁atacante	-10.3487
▁Aires	-10.3489
▁crítico	-10.3489
▁Sar	-10.3494
▁dinastia	-10.3497
▁manhã	-10.3497
▁contudo	-10.3503
▁nomeadamente	-10.3504
tr	-10.3505
▁possa	-10.3505
▁Tre	-10.3509
▁infantil	-10.351
▁vendido	-10.3511
▁permitiu	-10.3513
▁Max	-10.3513
nus	-10.3514
▁registro	-10.352
▁poderiam	-10.3526
▁adaptação	-10.3528
▁treinamento	-10.3529
▁Texas	-10.3529
posição	-10.3531
▁Company	-10.3534
eg	-10.3535
vers	-10.3537
log	-10.3537
▁International	-10.3538
▁serão	-10.3539
▁utilizando	-10.3541
72	-10.3541
▁Bro	-10.3541
▁Melo	-10.3541
din	-10.3545
▁Aeroporto	-10.3545
č	-10.3548
▁enfrentar	-10.355
ônico	-10.3552
cle	-10.3552
▁revelou	-10.3553
▁cristãos	-10.3556
▁Barcelona	-10.356
▁breve	-10.3567
▁câmara	-10.3574
▁recente	-10.3579
▁Pas	-10.3582
bus	-10.3583
▁design	-10.3595
▁enviado	-10.3596
▁árabe	-10.3597
▁prefeitura	-10.3597
wood	-10.3599
art	-10.3599
▁Ano	-10.3603
▁primo	-10.3606
▁34	-10.3606
▁músicos	-10.361
▁Pen	-10.3617
▁Windows	-10.362
una	-10.3625
51	-10.3627
▁aberta	-10.3631
▁métodos	-10.3631
▁oportunidade	-10.3636
ração	-10.3645
▁escravos	-10.3648
▁povoado	-10.3651
▁constelação	-10.366
▁Dar	-10.3661
▁guitarra	-10.3664
▁Top	-10.3666
ícia	-10.3666
Su	-10.3666
▁derrotado	-10.3667
▁estabelecer	-10.3667
▁Chicago	-10.3669
▁organizada	-10.3669
▁diâmetro	-10.3671
ag	-10.3674
▁autoria	-10.3676
▁san	-10.3678
▁certa	-10.3691
tismo	-10.3691
▁alvo	-10.3692
▁informa	-10.3693
▁floresta	-10.3695
lei	-10.3695
▁chamar	-10.3699
ius	-10.3707
▁direto	-10.3709
▁Cara	-10.3709
▁Dor	-10.3711
▁disponíveis	-10.3717
▁va	-10.3718
▁1950	-10.3718
▁marcado	-10.3719
▁uni	-10.3719
▁medicina	-10.3725
▁fatores	-10.3727
▁crescente	-10.3732
▁verdadeira	-10.3734
▁testes	-10.3735
▁Vida	-10.3736
▁1993	-10.3736
▁global	-10.3739
▁rural	-10.3742
▁descreveu	-10.3743
▁vir	-10.3743
▁página	-10.3744
▁destaca	-10.3748
▁Art	-10.3754
▁Bélgica	-10.3754
▁Sur	-10.3755
»	-10.3755
▁Atlântico	-10.376
▁American	-10.3762
▁gra	-10.3763
▁irá	-10.3764
▁retorna	-10.3764
▁determinado	-10.3767
73	-10.3767
An	-10.3767
pop	-10.3773
▁MTV	-10.3777
▁aquele	-10.3777
▁carros	-10.3778
▁utilizar	-10.3779
):	-10.3784
▁reunião	-10.3785
▁reconhecido	-10.3786
▁ficção	-10.3788
▁sucedido	-10.3791
▁falar	-10.3794
▁figuras	-10.3795
▁Grã	-10.3796
▁décimo	-10.3801
▁classificado	-10.3803
▁permitindo	-10.3804
▁interpretação	-10.3804
sky	-10.3806
ES	-10.3809
▁igrejas	-10.381
▁praça	-10.3811
▁moradores	-10.3812
▁l	-10.3812
▁$	-10.3814
▁denominação	-10.3814
▁van	-10.382
pio	-10.3821
vida	-10.3826
▁Horizonte	-10.3827
▁Sho	-10.3827
▁jornais	-10.3832
▁manutenção	-10.3834
▁Idade	-10.384
▁Bill	-10.3843
▁Fórmula	-10.3845
▁1997,	-10.3847
▁on	-10.3854
tó	-10.3855
▁trabalhando	-10.3862
▁próprias	-10.3867
▁1937	-10.3867
▁editor	-10.3868
ncia	-10.3868
ep	-10.3871
▁Joe	-10.3874
▁Todas	-10.3876
▁lançar	-10.3877
▁Mel	-10.3879
▁Green	-10.3884
phi	-10.3886
▁praia	-10.3887
▁foto	-10.3888
▁alcançar	-10.3891
▁princípios	-10.3894
▁gravações	-10.3899
▁velha	-10.3901
▁disputar	-10.3901
▁longe	-10.3904
▁milhares	-10.3906
▁exploração	-10.3907
oso	-10.3912
▁bens	-10.3913
cção	-10.3915
▁400	-10.3916
▁Kim	-10.3917
bá	-10.3919
▁300	-10.3919
▁usadas	-10.3924
▁indo	-10.3924
▁Aérea	-10.3925
▁imigrantes	-10.3926
▁Polônia	-10.3928
▁1940	-10.3928
nci	-10.3928
▁ordens	-10.3931
vol	-10.3937
▁meu	-10.394
ish	-10.3941
▁1988	-10.3944
▁tempestade	-10.3945
nti	-10.3946
▁Stone	-10.3946
▁renda	-10.3947
▁Países	-10.3949
▁inf	-10.3951
▁localização	-10.3963
nar	-10.3963
lim	-10.3964
▁espacial	-10.3964
▁instalação	-10.3966
dade	-10.3969
▁bairros	-10.3971
my	-10.3976
▁Hol	-10.3985
▁formam	-10.3987
▁Oeste	-10.3987
▁universo	-10.3989
▁cresceu	-10.3991
▁Unidas	-10.3991
▁Conta	-10.3992
▁Alta	-10.3992
▁fusão	-10.3995
ky	-10.3995
▁conhece	-10.3996
▁considera	-10.4001
▁Mont	-10.4004
▁Night	-10.4005
▁reserva	-10.4008
▁orquestra	-10.4009
tum	-10.4011
▁Sin	-10.4012
ell	-10.4015
É	-10.4022
▁37	-10.4023
▁tira	-10.4025
lt	-10.4029
stru	-10.4035
▁trouxe	-10.4038
posto	-10.404
ken	-10.4041
▁Yo	-10.4045
▁canto	-10.405
rus	-10.4053
▁1994,	-10.4053
▁atores	-10.4054
▁mostrou	-10.4056
▁Vicente	-10.4057
▁descreve	-10.4061
▁bilhões	-10.4065
▁comunidades	-10.4071
▁garantir	-10.4073
▁enviou	-10.4076
▁Santiago	-10.4079
▁animação	-10.4081
▁Lou	-10.4086
▁protagonista	-10.4095
▁Desenvolvimento	-10.4095
rt	-10.4097
1,	-10.4098
▁alguém	-10.4098
ity	-10.4102
igo	-10.4102
cionais	-10.4103
▁fórmula	-10.4107
▁conselho	-10.4107
Billboard	-10.4109
▁°	-10.411
▁Angola	-10.411
▁derrotou	-10.4115
▁permitir	-10.4122
▁emprego	-10.4125
▁igualmente	-10.4126
▁destas	-10.4127
▁Outras	-10.4128
▁aniversário	-10.4129
stri	-10.4133
hy	-10.4137
▁ne	-10.4137
▁Primeiro	-10.4139
▁deriva	-10.414
▁cidadãos	-10.4141
▁transferência	-10.4143
▁Gen	-10.4145
▁estando	-10.4147
▁ampla	-10.4147
▁mor	-10.4147
ola	-10.4151
▁Pop	-10.4151
▁continente	-10.4159
well	-10.4164
▁descobre	-10.4165
ik	-10.4168
▁latim	-10.4169
sos	-10.4172
▁College	-10.4172
▁disputado	-10.4174
▁iniciativa	-10.4175
ding	-10.4175
ônia	-10.4179
▁Mary	-10.4181
▁Colômbia	-10.4185
▁foco	-10.4186
▁Edward	-10.4195
ial	-10.4197
▁existentes	-10.4199
posta	-10.4201
cur	-10.4206
▁responsáveis	-10.4209
▁queda	-10.4224
▁podia	-10.4228
▁1992,	-10.4232
▁Long	-10.4233
tais	-10.4234
▁dela	-10.4236
▁Carolina	-10.4236
▁Esses	-10.4237
▁2004.	-10.4242
▁aeronave	-10.4249
▁Grosso	-10.4261
rino	-10.4262
ila	-10.4264
pan	-10.4264
Ja	-10.4267
▁Internet	-10.4267
▁Programa	-10.4269
▁Walter	-10.4271
fen	-10.428
▁Cy	-10.4287
▁fé	-10.4292
▁Hel	-10.4292
isto	-10.4293
▁naquela	-10.4295
▁sudeste	-10.4297
▁Dis	-10.4298
nie	-10.4299
▁cobertura	-10.43
ning	-10.4302
▁38	-10.4303
▁Martins	-10.4305
▁Fortaleza	-10.4306
ios	-10.4311
▁conheceu	-10.4312
▁olímpico	-10.4314
▁Grand	-10.4318
▁Sob	-10.4318
▁assassinato	-10.4318
cial	-10.4324
aram	-10.4326
▁vindo	-10.4327
▁ritmo	-10.4332
+	-10.4335
▁revela	-10.4335
▁envolve	-10.4336
▁invés	-10.4338
lista	-10.4338
Man	-10.4339
▁neo	-10.4339
rida	-10.4341
▁inverno	-10.4344
▁White	-10.4344
▁rica	-10.4345
▁perdido	-10.4345
dar	-10.4348
ância	-10.4352
ém	-10.4355
▁branca	-10.4356
▁presidência	-10.4358
▁união	-10.4361
▁retirada	-10.4362
▁consequência	-10.4363
bili	-10.4371
yn	-10.4372
▁Live	-10.4372
▁Recife	-10.4373
lou	-10.4373
▁documento	-10.4375
▁fábrica	-10.4381
▁agente	-10.4382
▁magnitude	-10.4384
▁cole	-10.4385
▁cria	-10.4386
▁Cla	-10.4391
▁Gabriel	-10.4392
▁exclusivamente	-10.4393
▁Jones	-10.4393
anda	-10.44
ná	-10.4401
▁tivesse	-10.4401
▁XVII	-10.4402
▁her	-10.4408
lada	-10.4408
▁cintura	-10.4411
▁campeã	-10.4411
▁expedição	-10.4417
Ne	-10.4418
▁associado	-10.4422
▁aparição	-10.4422
▁designado	-10.4423
▁inspirado	-10.4424
▁direcção	-10.4425
▁poesia	-10.4425
▁High	-10.4425
▁Inicialmente	-10.4428
▁abriu	-10.4434
▁Ban	-10.4439
▁avião	-10.444
nascido	-10.4441
▁resultou	-10.4442
▁noroeste	-10.4442
▁império	-10.4442
dido	-10.4445
▁Regional	-10.4445
▁tradução	-10.4451
▁1995,	-10.4451
▁amplamente	-10.4452
▁Província	-10.4454
▁nossa	-10.4456
▁Paraguai	-10.4457
ev	-10.4459
▁consumo	-10.4463
▁trama	-10.4464
▁estrelado	-10.4473
▁dividida	-10.4477
▁moderno	-10.4479
▁Auto	-10.448
▁interpretou	-10.4483
▁assistente	-10.4483
▁pés	-10.4484
Jo	-10.4487
▁sucessor	-10.4489
▁Lopes	-10.4493
▁matemático	-10.4495
side	-10.4496
metragem	-10.4501
Americanos	-10.4507
▁abriga	-10.4508
cente	-10.4509
▁1958	-10.4511
▁mm	-10.4515
▁discos	-10.4517
▁Jr	-10.4517
▁1989	-10.4518
▁samba	-10.4521
▁sudoeste	-10.4521
▁mostrar	-10.4529
▁resulta	-10.453
▁padrões	-10.4533
die	-10.4533
nger	-10.4534
▁Championship	-10.4536
7%	-10.4541
▁urbana	-10.4543
▁h	-10.4543
▁Júnior	-10.4547
▁Escócia	-10.4548
▁Fla	-10.4549
▁Volta	-10.4549
▁Mário	-10.4553
▁Sérvia	-10.4559
inos	-10.456
▁u	-10.456
▁arco	-10.4562
▁culto	-10.4566
plica	-10.4569
▁promoção	-10.4571
elo	-10.4579
▁Zi	-10.458
ring	-10.4582
▁seguindo	-10.4583
82	-10.4584
▁1960,	-10.4585
▁inimigos	-10.4586
ônica	-10.4588
▁redução	-10.4589
inas	-10.4589
berto	-10.459
▁árvore	-10.4592
▁apresentações	-10.4593
▁Albert	-10.4593
▁Mil	-10.4594
Em	-10.4596
▁Ilhas	-10.4599
▁larga	-10.4602
izados	-10.4604
▁À	-10.4605
▁civis	-10.4608
▁desejo	-10.4608
▁exceto	-10.4612
ab	-10.4618
▁prazo	-10.462
▁inaugurada	-10.4621
▁vontade	-10.4622
▁exceção	-10.463
▁Tim	-10.4632
▁alimentos	-10.4634
▁Royal	-10.4635
▁espera	-10.4637
▁conseguiram	-10.4638
▁margens	-10.4639
▁1920	-10.4639
▁pan	-10.4642
ture	-10.4644
▁vocais	-10.4654
▁engenharia	-10.466
▁fortemente	-10.4661
▁química	-10.4661
▁Fox	-10.4665
?"	-10.4668
▁ponta	-10.4668
▁doenças	-10.4668
▁Sá	-10.4669
▁órgãos	-10.4669
▁transferido	-10.4675
▁performance	-10.4675
▁Band	-10.4676
▁Tratado	-10.4679
▁Kar	-10.4683
▁posterior	-10.4684
▁rota	-10.4685
tados	-10.4691
▁limites	-10.4692
▁matar	-10.4693
▁instalações	-10.4697
▁Film	-10.4697
▁projecto	-10.4702
▁começar	-10.4703
▁3.	-10.4704
▁decide	-10.4707
▁europeu	-10.4707
hn	-10.471
▁Guarda	-10.4712
▁curto	-10.4719
▁permanece	-10.4719
▁Franco	-10.472
▁chave	-10.4723
▁Secretaria	-10.4723
▁caiu	-10.4724
▁tio	-10.4726
▁notável	-10.4729
▁Machado	-10.473
▁Hill	-10.473
-0	-10.4731
▁Noruega	-10.4738
▁Aos	-10.474
▁esca	-10.4741
▁semelhantes	-10.4743
▁Público	-10.4744
▁veículo	-10.4746
▁Ir	-10.475
▁canais	-10.4753
▁esporte	-10.4754
▁seres	-10.4755
▁Homem	-10.4756
91	-10.4756
▁conversa	-10.4757
▁times	-10.4758
â	-10.4764
▁representando	-10.4765
▁usou	-10.4768
100	-10.477
▁constituído	-10.4771
uto	-10.4781
▁Final	-10.4783
nor	-10.4783
▁feminina	-10.4783
93	-10.4787
▁assuntos	-10.4787
▁Uni	-10.4791
▁indivíduo	-10.4792
▁minha	-10.4794
aria	-10.4796
▁Baixos	-10.4807
her	-10.4809
▁Pelo	-10.4811
ques	-10.4814
▁Qua	-10.4815
▁enredo	-10.4823
▁extremo	-10.4832
▁Lá	-10.4833
▁Braga	-10.4834
▁estrangeiros	-10.4834
▁Pinto	-10.4836
▁Pela	-10.4836
▁popularidade	-10.4837
▁nobre	-10.4838
▁gelo	-10.4839
▁42	-10.4845
ight	-10.4845
▁russa	-10.4848
▁inteiro	-10.4861
▁durou	-10.4862
futebolista	-10.4864
▁Frederico	-10.4868
▁gravada	-10.4882
▁aeronaves	-10.4883
▁representantes	-10.4885
Pro	-10.4889
▁professores	-10.4892
▁Medicina	-10.4892
▁expressa	-10.4893
▁48	-10.4895
02	-10.4898
cula	-10.4904
▁One	-10.4909
▁produtores	-10.4914
▁Marcelo	-10.4914
▁Sim	-10.4918
▁Açores	-10.492
▁conquistar	-10.4923
▁árvores	-10.4924
▁rival	-10.4926
ática	-10.4927
▁facilmente	-10.4929
▁levado	-10.4934
▁2005.	-10.4939
▁representar	-10.4942
mbro	-10.4943
▁2018.	-10.4944
▁argentino	-10.4944
responsabilidade	-10.4945
liga	-10.4945
▁tela	-10.4946
ted	-10.4955
ari	-10.496
▁oferta	-10.4963
▁Amor	-10.4967
▁atleta	-10.4967
▁carne	-10.4967
▁ideal	-10.4969
▁atuava	-10.4972
▁Record	-10.4973
▁moral	-10.4978
▁Hollywood	-10.4981
pul	-10.4983
▁coluna	-10.4983
▁padre	-10.4983
▁possivelmente	-10.4987
▁ten	-10.4989
▁candidatos	-10.4995
▁escritos	-10.4995
▁Especial	-10.4996
pl	-10.4998
wo	-10.4998
▁beleza	-10.5003
nsa	-10.5008
▁traz	-10.501
▁manda	-10.5013
▁Torre	-10.5016
▁esforço	-10.5017
né	-10.5038
▁indígenas	-10.5038
▁católica	-10.504
▁cartas	-10.5048
▁executivo	-10.5052
▁Dinamarca	-10.5052
▁serve	-10.5052
▁aliança	-10.5053
▁aves	-10.5056
▁piano	-10.5056
▁is	-10.5057
▁fachada	-10.5058
ath	-10.5062
▁integra	-10.5071
▁tido	-10.5071
▁motivos	-10.5071
endo	-10.5073
fal	-10.5076
▁calor	-10.5079
pol	-10.5079
▁possíveis	-10.508
ea	-10.508
▁Nordeste	-10.5083
ben	-10.5084
▁transmitido	-10.5086
▁retornar	-10.5086
▁pinturas	-10.5089
▁Venezuela	-10.5091
▁Bri	-10.5092
▁esforços	-10.5097
▁revistas	-10.5103
▁Ji	-10.5104
▁Poli	-10.5105
52	-10.5112
vos	-10.5116
SA	-10.512
ótica	-10.5123
92	-10.5125
▁estaduais	-10.5127
lam	-10.5127
-4	-10.5128
▁Boy	-10.513
2%	-10.5132
▁próximos	-10.5137
▁ocorrido	-10.5138
▁coloca	-10.514
▁Sé	-10.514
▁entrega	-10.514
▁onda	-10.5142
▁ad	-10.5147
▁Mur	-10.5149
▁medalhas	-10.5152
▁Cole	-10.5154
For	-10.5154
▁regra	-10.5157
cent	-10.5161
▁fácil	-10.5161
▁pagamento	-10.5162
▁Eric	-10.5165
▁Marcos	-10.5171
▁perdendo	-10.5172
▁39	-10.5173
▁Inverno	-10.5174
sol	-10.5174
▁assunto	-10.5176
▁estende	-10.5183
▁cur	-10.5184
▁trinta	-10.5185
▁funcionamento	-10.5185
▁importa	-10.5188
▁personalidade	-10.5189
▁caixa	-10.5204
▁interpretada	-10.5206
▁oriental	-10.521
▁Corpo	-10.5215
▁missões	-10.5215
nais	-10.5217
▁componentes	-10.5218
▁concentração	-10.5219
▁doutrina	-10.5221
▁Imperial	-10.5224
AM	-10.5229
▁Pará	-10.523
▁instrumento	-10.5237
▁1967	-10.5243
▁sexto	-10.5243
▁julgamento	-10.5245
▁Game	-10.5248
▁Rose	-10.5251
▁UA	-10.5252
▁Universal	-10.5252
tru	-10.5255
▁dirigiu	-10.5256
▁restante	-10.5259
▁Zona	-10.526
▁usuário	-10.5263
ativa	-10.5264
▁justiça	-10.5265
▁Souza	-10.5266
▁falha	-10.5269
▁seriado	-10.5272
▁demanda	-10.5275
▁Cultural	-10.5277
▁levaram	-10.5278
▁Bob	-10.5281
▁cap	-10.5282
▁Pio	-10.5287
▁ausência	-10.5287
▁Wood	-10.5288
▁eixo	-10.5291
sar	-10.5292
▁:	-10.5294
eto	-10.5294
▁descobriu	-10.5297
bit	-10.5306
▁acusado	-10.5307
▁extinta	-10.5309
▁Cuba	-10.5313
▁Goiás	-10.5313
▁Letras	-10.5314
▁1986	-10.5322
▁potência	-10.5322
▁dedicada	-10.5326
▁Corte	-10.533
oni	-10.5332
▁1929	-10.5335
▁1987	-10.5336
▁séries	-10.5337
▁mínimo	-10.5338
burgo	-10.534
mus	-10.5344
▁sinais	-10.5344
▁exercício	-10.5344
▁Francesa	-10.5345
▁classes	-10.5347
▁Boa	-10.5347
▁pico	-10.5349
▁viaja	-10.5351
▁conserva	-10.5353
▁participaram	-10.5354
▁máquina	-10.5354
▁americanos	-10.5355
▁pena	-10.5357
▁elevada	-10.5358
▁Comunidade	-10.5359
rim	-10.5363
▁Moscou	-10.5367
▁pesca	-10.537
▁superiores	-10.537
▁Lucas	-10.5375
▁cantar	-10.5376
cara	-10.5377
42	-10.538
cul	-10.5382
▁cha	-10.5383
ER	-10.5384
ii	-10.5386
mpa	-10.5389
voca	-10.539
▁Essas	-10.5392
▁perspectiva	-10.5392
▁Var	-10.5394
▁1919	-10.5399
▁aumenta	-10.5401
indo	-10.5404
▁Paz	-10.5405
▁Pessoa	-10.5409
eno	-10.541
▁condenado	-10.5411
▁exibição	-10.5412
ético	-10.5412
ec	-10.5413
▁Fez	-10.5418
▁tese	-10.5421
▁bomba	-10.5422
▁Billboard	-10.5425
▁receberam	-10.5429
▁revelado	-10.543
▁Mendes	-10.543
▁(15	-10.5431
▁recusou	-10.5437
nan	-10.5438
▁Esp	-10.5438
▁atravessa	-10.5441
▁interesses	-10.5444
▁ocupa	-10.5444
▁diferenças	-10.5446
▁aulas	-10.5447
▁centros	-10.5451
▁Au	-10.5454
▁1928	-10.5456
▁partidos	-10.5459
▁Professor	-10.5459
ska	-10.5461
3%	-10.5464
enda	-10.5465
adores	-10.5466
▁Esporte	-10.5473
▁1991,	-10.5477
▁1917	-10.5482
ette	-10.5487
low	-10.549
▁toma	-10.5492
▁definido	-10.5493
hl	-10.5493
▁aproxima	-10.5495
▁Jun	-10.5505
▁pen	-10.5509
▁ativo	-10.5511
▁especializada	-10.5512
ibi	-10.5514
▁cruz	-10.5514
▁demonstra	-10.5514
▁roupas	-10.5514
▁opera	-10.5517
à	-10.5526
▁legislação	-10.5528
▁conflitos	-10.5529
▁colocar	-10.5533
▁lojas	-10.5533
▁goleiro	-10.5538
▁ocorrer	-10.554
▁150	-10.5543
nel	-10.5552
▁Hor	-10.5552
▁Up	-10.5553
▁selecionado	-10.5556
▁camisa	-10.5557
▁Muitas	-10.5558
▁recebendo	-10.5561
▁1993,	-10.5568
llo	-10.5568
▁44	-10.5569
Lu	-10.5569
▁cai	-10.5569
▁gêneros	-10.5571
▁produz	-10.5574
cen	-10.5575
▁zonas	-10.5576
▁descendentes	-10.5577
▁(16	-10.5578
BA	-10.5579
▁Ken	-10.558
▁Gri	-10.5583
gente	-10.5586
lip	-10.5587
zinho	-10.5591
▁vítimas	-10.5594
▁Roger	-10.5595
▁Matt	-10.5596
▁passo	-10.56
▁decréscimo	-10.5603
▁participa	-10.5611
▁Times	-10.5613
▁Bru	-10.5613
▁Gre	-10.5614
▁comissão	-10.5614
▁cristã	-10.5616
pas	-10.5616
▁Williams	-10.5617
▁largura	-10.5619
▁apresentando	-10.562
▁bal	-10.5621
▁Estrada	-10.5622
▁criando	-10.5622
lógica	-10.5622
iti	-10.5623
▁Reis	-10.5624
▁Mari	-10.5626
▁1924	-10.5629
▁afirmando	-10.563
▁Bom	-10.563
▁referido	-10.563
let	-10.5631
▁altamente	-10.5636
mico	-10.5638
▁Madonna	-10.5639
▁Paraíba	-10.564
▁1912	-10.5642
▁Cri	-10.5643
tida	-10.5645
▁montanhas	-10.5652
ay	-10.5655
▁adquiriu	-10.5656
▁capítulo	-10.5656
▁parada	-10.5656
▁preço	-10.5658
lino	-10.5659
▁acha	-10.5665
▁biblioteca	-10.5666
▁existir	-10.5669
▁Kra	-10.5674
▁Imperador	-10.5675
▁Mike	-10.5676
ída	-10.5679
▁chinesa	-10.5679
▁coleta	-10.568
▁Decreto	-10.5689
▁trem	-10.5692
ór	-10.5693
▁motores	-10.5697
▁1922	-10.5698
▁Estudos	-10.57
▁acompanhado	-10.5702
▁Ten	-10.5703
▁lembra	-10.5705
▁aparência	-10.5705
pus	-10.5706
▁solar	-10.5707
▁dada	-10.571
▁latino	-10.5714
▁classificou	-10.5715
tera	-10.5715
▁momentos	-10.5719
▁Cap	-10.5723
▁recentes	-10.5724
▁Mata	-10.5725
Com	-10.573
▁Air	-10.5735
▁horário	-10.5738
▁curva	-10.5738
▁indi	-10.5739
▁café	-10.5742
▁intitulada	-10.5745
▁pede	-10.5746
bb	-10.5748
▁anualmente	-10.5748
▁Bay	-10.5749
▁lutar	-10.575
▁proteger	-10.575
ólogo	-10.575
▁Award	-10.575
▁transição	-10.5759
▁religioso	-10.576
▁espiritual	-10.5761
▁conclusão	-10.5762
▁Soares	-10.5762
▁sítio	-10.5764
▁hi	-10.5767
▁Bla	-10.5768
▁bordo	-10.5768
▁incêndio	-10.5768
▁Arthur	-10.5771
▁franquia	-10.5771
▁opinião	-10.5771
▁Zelândia	-10.5772
▁Turquia	-10.5775
idos	-10.578
▁fundadores	-10.578
▁inimigo	-10.578
fec	-10.5781
▁Buenos	-10.5783
tio	-10.5788
▁juiz	-10.579
▁notícias	-10.5791
▁razões	-10.5791
campeão	-10.5792
AR	-10.5792
▁contava	-10.5795
▁Gonçalves	-10.5795
▁Preto	-10.5795
▁fl	-10.5796
col	-10.5796
tero	-10.5802
▁montanha	-10.5805
▁Rainha	-10.5806
olo	-10.5808
▁64	-10.5809
âm	-10.5809
gé	-10.5813
▁Via	-10.5814
nês	-10.5815
▁moda	-10.5817
▁top	-10.582
▁Johnson	-10.5821
fia	-10.5821
▁Time	-10.5821
▁corpos	-10.5827
▁índios	-10.5828
Ka	-10.5828
▁alterações	-10.583
▁mecânica	-10.5831
▁restantes	-10.5835
▁britânicos	-10.5838
▁Guiné	-10.5839
▁habitats	-10.5842
▁Organização	-10.5842
▁distritos	-10.5843
▁Victor	-10.5844
zz	-10.5845
▁práticas	-10.5846
▁professora	-10.5855
▁depende	-10.5855
ale	-10.5856
ecido	-10.5862
▁pagar	-10.5864
uk	-10.5866
sson	-10.5871
▁University	-10.5875
▁Sir	-10.5879
▁introdução	-10.5879
▁2000.	-10.5879
▁detalhes	-10.588
▁vantagem	-10.5882
▁eventualmente	-10.5884
▁1984	-10.5885
▁aprovação	-10.5885
▁Apenas	-10.5885
▁colocou	-10.5889
zes	-10.5889
▁cer	-10.589
▁Ty	-10.5892
▁pat	-10.5898
▁Parlamento	-10.5899
▁ni	-10.5903
▁qualifica	-10.5905
▁Sil	-10.5905
leg	-10.5905
PA	-10.5906
▁brilhante	-10.5915
▁Rod	-10.592
▁realiza	-10.5923
▁Comitê	-10.5926
▁religiosas	-10.5931
▁Il	-10.5933
ís	-10.5933
titu	-10.5935
▁Batista	-10.5936
▁Sendo	-10.5938
▁peixe	-10.5939
▁Júlio	-10.5939
Bretanha	-10.5943
▁bacia	-10.5943
oto	-10.5945
▁Torneio	-10.5946
▁familiar	-10.5952
ston	-10.5953
▁Maranhão	-10.5953
▁circuito	-10.5953
▁Wil	-10.5955
▁drogas	-10.5957
▁1948	-10.5958
▁ato	-10.5959
▁Movimento	-10.596
ião	-10.596
▁cruza	-10.5966
▁céu	-10.5968
▁enfrentou	-10.597
vá	-10.5972
cum	-10.5973
▁trecho	-10.5975
ificação	-10.5976
▁v	-10.5979
chu	-10.5983
▁49	-10.5985
8%	-10.5986
▁adultos	-10.599
5%	-10.5991
▁barra	-10.5992
▁daquela	-10.5993
▁paradas	-10.5995
▁assinatura	-10.5997
▁aspecto	-10.5998
▁aliados	-10.5999
bla	-10.6001
▁Santana	-10.6003
▁Pertence	-10.6004
atual	-10.6005
▁óleo	-10.6007
cli	-10.6008
▁acontecimentos	-10.601
▁Defesa	-10.6014
▁assinado	-10.6017
▁urbano	-10.6019
▁men	-10.6022
Mu	-10.6028
enta	-10.6028
▁Participou	-10.6028
▁Teve	-10.6029
ade	-10.6029
aca	-10.6036
bate	-10.6038
nome	-10.6038
▁quinze	-10.6038
▁envolvendo	-10.604
itas	-10.6044
▁caracteriza	-10.6044
▁Doutor	-10.6045
tua	-10.6048
▁1946	-10.6052
▁indiano	-10.6053
▁41	-10.6054
▁Karl	-10.6054
▁agentes	-10.6058
▁selo	-10.6058
▁Sérgio	-10.6058
▁apresentada	-10.6062
ap	-10.6067
ame	-10.6069
▁Castela	-10.607
ticamente	-10.6072
▁constituída	-10.6072
▁1954	-10.6074
▁terminar	-10.6074
▁posteriores	-10.6075
▁elite	-10.6076
ciona	-10.6081
▁Bon	-10.6082
▁gravar	-10.6082
▁destacam	-10.6085
▁Médio	-10.6086
ā	-10.6088
▁danos	-10.6089
zen	-10.6094
▁policial	-10.6097
▁fal	-10.6102
▁Rocha	-10.6104
▁1930	-10.6105
▁altas	-10.6106
и	-10.6107
▁constituem	-10.6107
▁Lago	-10.6109
▁haver	-10.6114
▁inúmeras	-10.6117
▁aparente	-10.6118
":	-10.6119
forma	-10.612
▁cônsul	-10.6121
▁Viena	-10.6123
cidade	-10.6124
▁alma	-10.6126
▁encontradas	-10.613
▁Síria	-10.6131
As	-10.6133
ich	-10.6134
▁habilidades	-10.6135
▁Gold	-10.6135
▁Biblioteca	-10.6136
▁Street	-10.6139
▁Ham	-10.6141
▁ocorrem	-10.6142
▁XV	-10.6148
▁câncer	-10.6148
▁52	-10.6149
▁vivem	-10.615
▁onze	-10.6152
▁1963	-10.6152
Que	-10.6153
▁Wilson	-10.6157
/19	-10.6157
▁1982	-10.6161
enberg	-10.6164
▁Ly	-10.6167
▁Oceano	-10.6167
pes	-10.6173
deira	-10.6176
▁inde	-10.618
ló	-10.6182
▁formal	-10.6185
sivo	-10.6185
lândia	-10.6186
▁lógica	-10.6187
▁Livro	-10.6187
sumi	-10.6191
▁relata	-10.6193
▁Rob	-10.6194
▁1985	-10.6198
▁votação	-10.62
▁salto	-10.62
▁argumenta	-10.6203
mão	-10.6204
▁viagens	-10.6206
▁centenas	-10.6207
▁Desta	-10.6209
▁desenvolve	-10.6211
▁ligado	-10.6211
а	-10.6213
▁desenhos	-10.6214
▁atmosfera	-10.6214
▁oceano	-10.6215
▁raça	-10.6219
▁causou	-10.6221
star	-10.6223
▁orbital	-10.6224
▁chinês	-10.6224
▁Canção	-10.6225
▁UFC	-10.623
▁1988,	-10.6231
▁fazenda	-10.6233
▁1926	-10.6234
▁relatório	-10.6235
▁estabelecido	-10.6239
vy	-10.6239
▁tomada	-10.6242
▁construiu	-10.6242
este	-10.6242
▁jogando	-10.6244
9%	-10.6245
▁Pacífico	-10.6245
gin	-10.6248
MS	-10.6251
▁marinha	-10.6252
idades	-10.6253
▁1931	-10.6258
▁Wal	-10.6259
▁monte	-10.6261
▁exemplos	-10.6263
▁capazes	-10.6264
▁Só	-10.6265
▁extinto	-10.627
pet	-10.6273
▁autónoma	-10.6277
▁ópera	-10.6277
▁podemos	-10.6277
▁bio	-10.6279
▁mosteiro	-10.628
▁definida	-10.6285
▁divisões	-10.6287
▁mundiais	-10.6291
▁Rafael	-10.6291
▁Ac	-10.6292
ístico	-10.6292
Th	-10.6292
▁casar	-10.6293
▁vocal	-10.6296
cular	-10.6296
▁orientação	-10.6296
▁necessária	-10.6302
▁deseja	-10.6306
ile	-10.6308
eza	-10.6308
▁litoral	-10.6308
▁existente	-10.631
pel	-10.6312
▁crimes	-10.6314
1.	-10.6315
▁retrata	-10.6318
ington	-10.632
ai	-10.6321
▁Hungria	-10.6327
▁loja	-10.6327
▁captura	-10.633
and	-10.6333
▁actual	-10.6339
▁décima	-10.634
▁House	-10.6344
ânico	-10.6345
▁Governador	-10.6345
▁morrer	-10.6346
▁Curitiba	-10.6347
▁propósito	-10.6351
▁leitura	-10.6351
▁interpreta	-10.6352
▁senhor	-10.6353
tron	-10.6356
▁privada	-10.6358
▁aérea	-10.636
▁mensagem	-10.6365
▁amiga	-10.6366
americanos	-10.6367
AL	-10.637
▁destruição	-10.6372
BS	-10.6372
▁regionais	-10.6375
▁Feminino	-10.6379
▁nação	-10.6381
▁Inc	-10.6385
://	-10.6386
PS	-10.6387
▁confirmado	-10.6387
▁tom	-10.6391
ilha	-10.6391
more	-10.6392
▁licença	-10.6393
▁1944	-10.6395
▁produtora	-10.6395
▁províncias	-10.6395
▁usam	-10.6396
▁55	-10.6398
cr	-10.64
▁médica	-10.64
riano	-10.6407
▁Canal	-10.6408
▁pergunta	-10.641
▁integrou	-10.6411
▁religiosos	-10.6412
▁mesa	-10.6412
▁divulgação	-10.6412
▁France	-10.642
▁Vasco	-10.642
▁Fonte	-10.642
▁mantido	-10.6422
siva	-10.6423
▁salas	-10.6423
▁individuais	-10.6432
▁petróleo	-10.6432
vas	-10.6434
dd	-10.6434
▁Madeira	-10.6435
▁descobrir	-10.6435
▁junta	-10.6438
int	-10.6438
gor	-10.6439
▁matriz	-10.6439
▁clientes	-10.644
▁cura	-10.644
▁concerto	-10.6441
▁Association	-10.6443
▁Sebastião	-10.6446
▁situações	-10.6448
grafia	-10.6449
▁iniciada	-10.6452
▁Mad	-10.6455
▁riqueza	-10.6457
▁2002.	-10.6458
▁Bell	-10.6461
▁Comics	-10.6461
▁País	-10.6464
▁Atenas	-10.6464
▁índice	-10.6465
▁fre	-10.6468
▁Alexander	-10.6478
▁paredes	-10.6479
▁últimas	-10.6482
▁pessoais	-10.6484
▁Diretor	-10.6484
▁clara	-10.6486
▁contar	-10.6486
▁endémica	-10.6489
▁ocorreram	-10.649
▁Michel	-10.6494
▁designação	-10.6495
▁lateral	-10.6496
dan	-10.6496
▁proprietário	-10.6497
▁determinar	-10.6498
▁portas	-10.6499
▁Vieira	-10.6499
▁Gro	-10.65
▁Recebeu	-10.6502
▁Histórico	-10.6503
▁doutorado	-10.6506
▁produzidos	-10.6508
▁leve	-10.651
▁1927	-10.651
▁deputados	-10.651
▁Família	-10.6511
▁Gor	-10.6513
▁Greg	-10.6516
▁quebra	-10.6517
▁terminando	-10.6517
▁Ama	-10.652
▁1989,	-10.652
▁externa	-10.6527
▁experiências	-10.653
▁registros	-10.6531
6%	-10.6532
▁Ou	-10.6533
▁Português	-10.6534
pó	-10.6535
lic	-10.6535
vé	-10.654
▁ganhando	-10.654
▁quer	-10.6541
▁vo	-10.6543
▁melhorar	-10.6543
ene	-10.6544
▁Char	-10.6546
▁limitada	-10.6554
▁vítima	-10.6557
▁Mestre	-10.6557
▁(;	-10.6558
▁Fernandes	-10.6564
▁projetado	-10.6569
▁Catedral	-10.6572
▁iniciado	-10.6574
yer	-10.6575
▁Ye	-10.6577
ua	-10.6579
▁cu	-10.6579
ă	-10.6579
fini	-10.658
cin	-10.658
heim	-10.6581
▁aparentemente	-10.6582
▁Dentre	-10.6582
▁Nelson	-10.6583
▁vol	-10.6583
ânia	-10.6584
▁(4	-10.6585
Nova	-10.6585
▁1911	-10.6586
▁excelente	-10.659
▁singles	-10.659
▁pior	-10.6592
OS	-10.6596
AS	-10.6598
Or	-10.66
▁Zu	-10.6605
▁Padre	-10.6606
▁salva	-10.6606
▁intervenção	-10.6608
▁mantendo	-10.6612
▁Constantinopla	-10.6612
▁Negro	-10.6613
▁Rodrigo	-10.6615
▁cama	-10.6616
▁financeira	-10.662
ett	-10.662
▁tendência	-10.662
▁correspondente	-10.6622
ille	-10.6624
▁Bou	-10.6625
▁Diego	-10.6625
▁baixas	-10.6626
▁predominante	-10.6627
▁1983	-10.6629
▁43	-10.663
▁comparação	-10.663
▁subtropicais	-10.6633
▁aparecem	-10.6634
▁Studios	-10.6634
▁paga	-10.6639
▁virtude	-10.664
▁Simon	-10.6641
IS	-10.6642
▁Tony	-10.6645
▁Life	-10.6647
ços	-10.6651
▁Conceição	-10.6651
dem	-10.6652
▁Ray	-10.6652
▁populações	-10.6655
dre	-10.6655
final	-10.6657
▁modernos	-10.6657
velmente	-10.666
▁Cunha	-10.6661
▁Eli	-10.6663
▁North	-10.6666
▁Engenharia	-10.6673
▁Fer	-10.6674
▁extinção	-10.6677
▁altos	-10.6679
▁1947	-10.6681
▁1990.	-10.6681
▁BBC	-10.6683
nova	-10.6686
▁aplicações	-10.6687
▁Stra	-10.6689
▁carioca	-10.6691
▁pudesse	-10.6693
▁segura	-10.6693
▁requer	-10.6698
▁percebe	-10.6698
▁doce	-10.6698
▁...	-10.6702
▁colonial	-10.6702
▁Capitão	-10.6703
▁1939	-10.6704
dição	-10.6714
▁lesão	-10.6715
▁Center	-10.6716
▁Anna	-10.672
▁gastrópode	-10.6721
▁Andrade	-10.6721
▁pontuação	-10.6721
▁dirigida	-10.6724
▁bloco	-10.6728
▁fama	-10.673
▁determinada	-10.6736
CE	-10.6737
▁constituição	-10.6742
▁médicos	-10.6743
lhos	-10.6745
▁neto	-10.6746
▁arquivos	-10.6746
▁Lan	-10.6746
▁fenômeno	-10.6746
▁limitado	-10.6748
▁integrante	-10.675
ign	-10.6753
ixa	-10.6756
▁1952	-10.6757
▁1950,	-10.676
gne	-10.676
▁convite	-10.6761
▁compreende	-10.6762
uni	-10.6762
▁Teresa	-10.6765
ori	-10.6766
▁teriam	-10.6768
▁1923	-10.6771
▁interpretar	-10.6778
Bu	-10.6781
row	-10.6784
▁debate	-10.679
▁arcebispo	-10.679
uru	-10.6793
▁referências	-10.6794
▁Campeões	-10.6794
▁hip	-10.6796
▁implica	-10.6799
▁Christian	-10.6801
▁cobre	-10.6804
▁Jerusalém	-10.6805
▁má	-10.6808
pira	-10.681
▁PC	-10.6811
▁VII	-10.6813
▁amizade	-10.6813
fere	-10.6815
sul	-10.6815
▁narra	-10.6815
▁2003.	-10.6816
▁chamadas	-10.6821
▁encontrava	-10.6821
▁ocupado	-10.6822
▁constitui	-10.6822
▁medo	-10.6824
▁Open	-10.6826
king	-10.6827
▁lados	-10.6827
moto	-10.6827
▁profundidade	-10.6827
▁Bank	-10.6829
▁negros	-10.6831
ológico	-10.6833
AC	-10.6833
▁revolução	-10.6834
▁publicações	-10.6834
▁Taylor	-10.6835
cí	-10.6835
▁Administração	-10.6839
▁ger	-10.6839
▁1900	-10.6839
rias	-10.6839
▁Kat	-10.684
▁hidro	-10.6841
▁alternativa	-10.6849
dez	-10.6849
▁Steve	-10.685
▁faculdade	-10.6852
▁Pública	-10.6852
sio	-10.6853
▁comumente	-10.6856
▁literária	-10.6857
▁herói	-10.6858
ller	-10.6859
lação	-10.6861
baixo	-10.6861
▁marcada	-10.6864
▁atuando	-10.6867
▁vigor	-10.687
▁raízes	-10.6872
▁permanente	-10.6876
▁guia	-10.6876
▁media	-10.6876
▁marcha	-10.6884
▁pu	-10.6886
En	-10.6888
parti	-10.6893
sp	-10.6895
ob	-10.6895
▁voto	-10.6896
ular	-10.6897
clo	-10.6899
ota	-10.6899
▁nosso	-10.69
▁Segurança	-10.6902
▁Ponta	-10.6903
▁mesmos	-10.6906
PI	-10.6908
rma	-10.6913
▁utilizadas	-10.6916
▁dificuldade	-10.6916
▁Fluminense	-10.6917
▁confirmou	-10.6917
pra	-10.6918
▁1951	-10.6921
▁recuperar	-10.6922
▁1959	-10.6925
az	-10.6929
▁estatuto	-10.6932
ografia	-10.6933
▁reduzir	-10.6935
▁eleitos	-10.6939
▁afluente	-10.694
▁colégio	-10.695
▁diocese	-10.695
rit	-10.6951
és	-10.6958
▁Terceira	-10.6958
▁Out	-10.6959
iel	-10.6959
▁objetivos	-10.6963
▁separação	-10.6963
non	-10.6964
▁Sobre	-10.6965
▁relacionadas	-10.6965
▁2019.	-10.6966
ema	-10.6966
▁estratégia	-10.6967
▁daí	-10.6971
▁col	-10.6972
▁baterista	-10.6975
▁1961	-10.6975
_3	-10.6975
▁incluiu	-10.6978
nio	-10.698
zio	-10.6982
▁substituída	-10.6982
▁substituir	-10.6983
ático	-10.6985
▁Young	-10.6988
▁BR	-10.6988
▁fornecer	-10.6988
▁tro	-10.699
ês	-10.6995
▁quadrados	-10.6997
▁históricos	-10.6998
▁Chart	-10.6999
▁modalidade	-10.7001
▁eliminado	-10.7002
▁1925	-10.7003
▁desenvolvida	-10.7013
▁composições	-10.7013
▁cujos	-10.7015
▁publicados	-10.7015
▁Fri	-10.702
▁fugir	-10.7022
▁Nick	-10.7022
ntal	-10.7024
▁independentes	-10.7025
▁peixes	-10.7026
ição	-10.7028
▁arre	-10.7031
▁humor	-10.7032
▁Média	-10.7034
town	-10.7036
cão	-10.7036
ala	-10.7038
▁aquela	-10.7042
▁47	-10.705
Cor	-10.7056
▁Lua	-10.7056
He	-10.7057
▁esperança	-10.7057
▁tor	-10.7058
ill	-10.7058
mã	-10.7061
▁Bruno	-10.7062
▁funciona	-10.7064
▁líquido	-10.7067
▁habilidade	-10.7068
▁lançados	-10.707
▁54	-10.7073
iba	-10.7075
▁ligada	-10.7076
▁1943	-10.7078
▁ocupou	-10.7078
1%	-10.708
▁1921	-10.7082
▁nele	-10.7083
▁Camp	-10.7088
▁canta	-10.7088
tadas	-10.7089
▁ordenou	-10.7094
ive	-10.7094
RA	-10.7095
nário	-10.7096
▁Society	-10.7097
▁participações	-10.7098
▁mon	-10.7098
▁1975	-10.7099
▁Bol	-10.71
asteroide	-10.7102
▁Amazonas	-10.7102
▁1979	-10.7103
▁Euro	-10.7104
St	-10.7105
▁conservação	-10.7106
álbum	-10.7106
▁impedir	-10.7106
▁resolver	-10.7109
▁incidente	-10.7109
▁assume	-10.711
▁fator	-10.711
▁influências	-10.7111
▁Bispo	-10.7113
▁temos	-10.7113
▁confronto	-10.7113
ança	-10.7114
▁pouca	-10.7114
versa	-10.7118
▁negro	-10.7118
▁nomeou	-10.7118
▁traça	-10.7123
tões	-10.7126
▁carnaval	-10.7132
▁Começou	-10.7132
▁historiadores	-10.7135
▁definir	-10.714
▁eletrônica	-10.7143
pha	-10.7144
linha	-10.7144
▁uns	-10.7144
▁pacientes	-10.7144
▁empréstimo	-10.7147
terna	-10.715
▁recuperação	-10.7152
▁cientistas	-10.7152
▁conhecer	-10.7154
▁roda	-10.7155
▁espaços	-10.7157
▁Cli	-10.7159
▁absoluta	-10.716
▁japoneses	-10.7166
▁volumes	-10.7167
▁Bíblia	-10.717
end	-10.7175
tário	-10.7176
▁65	-10.7176
▁Jim	-10.7176
▁1913	-10.718
▁ho	-10.7184
izadas	-10.7186
uf	-10.7191
san	-10.7194
▁Cle	-10.7196
▁avaliação	-10.7201
ên	-10.7201
▁1941	-10.7202
▁Ram	-10.7204
▁America	-10.7205
▁negra	-10.7205
quia	-10.7206
▁1976	-10.7208
▁tribo	-10.7209
▁frase	-10.7214
▁Kong	-10.7217
ches	-10.722
vou	-10.722
▁universal	-10.7224
▁percurso	-10.7228
ianos	-10.7231
▁Pla	-10.7231
▁defendeu	-10.7234
▁sucessos	-10.7235
cado	-10.7235
tista	-10.7235
ña	-10.7241
mbu	-10.7243
▁Diocese	-10.7243
▁uniforme	-10.7245
▁fechado	-10.7246
tle	-10.7247
▁integrar	-10.7248
▁espectadores	-10.7249
▁Cro	-10.725
▁CO	-10.725
▁roteirista	-10.7251
▁cardeal	-10.7251
▁parede	-10.7251
uch	-10.7254
▁tentando	-10.7254
▁passam	-10.7256
▁iniciais	-10.7257
▁páginas	-10.7258
mentar	-10.726
▁Ball	-10.7263
▁terrestre	-10.7266
▁Lar	-10.7267
▁publica	-10.7268
▁universidades	-10.7271
Ju	-10.7271
ndu	-10.7271
▁inúmeros	-10.7274
▁1936	-10.7275
▁concluiu	-10.7275
bat	-10.7276
▁1986,	-10.7277
▁ciências	-10.7279
sal	-10.728
▁ave	-10.728
▁1949	-10.7281
▁mente	-10.7281
mático	-10.7282
▁tensão	-10.7284
▁anúncio	-10.7286
usa	-10.7289
▁turismo	-10.7294
ôn	-10.7294
▁nuclear	-10.7296
▁fases	-10.7297
▁aviões	-10.7297
▁coro	-10.7299
▁circulação	-10.7302
▁aéreo	-10.7305
rup	-10.7305
▁inc	-10.7306
▁Pictures	-10.7307
ique	-10.7308
▁1942	-10.7309
▁|	-10.7311
ativo	-10.7313
▁organiza	-10.7314
▁mencionado	-10.7316
▁espanhóis	-10.7317
▁Belém	-10.7317
▁Pai	-10.7318
çu	-10.732
▁toca	-10.7324
▁esportivo	-10.7324
▁dimensões	-10.7328
▁Livre	-10.7329
dente	-10.7329
▁convocado	-10.733
▁colocados	-10.733
▁Cam	-10.7332
▁1953	-10.7332
▁desloca	-10.7333
ç	-10.7335
▁monarca	-10.7336
chen	-10.7336
▁Jornal	-10.7339
▁humanidade	-10.7341
▁norma	-10.7343
gada	-10.7343
▁perigo	-10.7343
▁compostos	-10.7344
▁Vice	-10.7346
▁italianos	-10.7348
▁rodovia	-10.735
ant	-10.7351
▁Flórida	-10.7352
vido	-10.7352
ue	-10.7353
ama	-10.7356
aba	-10.7357
stein	-10.7358
▁liderada	-10.7358
▁1978	-10.7359
▁interpretado	-10.736
▁Passa	-10.7363
água	-10.7364
▁perde	-10.7364
▁fotos	-10.7365
nza	-10.7365
tano	-10.7369
▁camada	-10.7374
▁Luz	-10.7375
mil	-10.7376
▁At	-10.7376
lidade	-10.7378
▁Fre	-10.7378
▁colocada	-10.7379
win	-10.7385
▁derrotar	-10.739
▁Reg	-10.7391
▁notas	-10.7391
mato	-10.7392
▁dominante	-10.7394
▁Nintendo	-10.7395
▁interno	-10.7397
3,	-10.7399
▁computadores	-10.7409
▁combinação	-10.7409
-17	-10.7416
▁Sel	-10.7417
▁cauda	-10.7418
MG	-10.7418
▁XIII	-10.7419
ónica	-10.7421
▁específico	-10.7422
▁vídeos	-10.7424
▁Microsoft	-10.743
▁1915	-10.743
ation	-10.7431
ós	-10.7433
▁Estrela	-10.7434
▁critica	-10.7436
▁aprovado	-10.7438
▁criados	-10.7443
▁reconhecida	-10.7443
▁associados	-10.7444
▁Land	-10.7447
▁acervo	-10.745
▁contemporânea	-10.7457
oli	-10.746
▁declinação	-10.7461
▁colônia	-10.7462
▁próximas	-10.7463
▁Natural	-10.7465
▁Ran	-10.7467
▁Nascido	-10.747
▁Município	-10.7473
rna	-10.7476
▁Sr	-10.7479
Ri	-10.7479
RS	-10.748
▁Bernardo	-10.7481
▁Barbosa	-10.7485
▁Fin	-10.7486
▁Hugo	-10.7488
▁sueco	-10.7494
▁Miranda	-10.7494
▁científico	-10.7494
▁Ford	-10.7496
▁ambiental	-10.7497
▁Junior	-10.7497
▁domingo	-10.7498
▁Holanda	-10.7501
▁narrativa	-10.7503
▁sobrinho	-10.7507
▁positiva	-10.7508
▁aponta	-10.7512
▁patente	-10.7512
▁Comunista	-10.7513
▁introduzido	-10.7514
▁estreita	-10.7517
▁defende	-10.7518
bru	-10.7523
▁indicada	-10.7524
▁pró	-10.7525
▁bra	-10.753
▁nomeada	-10.7531
▁integrado	-10.7533
feito	-10.7533
▁Post	-10.7533
pare	-10.7533
▁inspiração	-10.7534
▁cerco	-10.7535
▁atacar	-10.7536
amente	-10.7537
inger	-10.7538
▁Secretário	-10.7541
ifica	-10.7545
und	-10.7545
Fi	-10.7546
PE	-10.755
▁Fazenda	-10.7553
▁Paula	-10.7554
▁boas	-10.7556
▁possam	-10.7556
▁sediada	-10.7557
▁Pira	-10.7558
▁paralelo	-10.7559
▁questiona	-10.7561
▁concertos	-10.7563
▁Tan	-10.7563
icos	-10.7566
▁Forte	-10.7567
▁descrição	-10.7567
▁Mario	-10.7568
▁abordagem	-10.7569
▁assistência	-10.7572
Ex	-10.7572
punha	-10.7572
▁apelido	-10.7573
▁Vargas	-10.7573
▁Lau	-10.7573
▁Americana	-10.7577
ium	-10.7577
▁seção	-10.7578
nato	-10.7579
cina	-10.7584
▁andar	-10.7586
▁Flor	-10.7587
ow	-10.7588
▁enfrenta	-10.7588
▁filmagens	-10.7588
▁desconhecido	-10.7589
▁sur	-10.7589
▁Brian	-10.7591
▁ranking	-10.7592
▁cargos	-10.7593
mis	-10.7598
▁origens	-10.76
▁Hal	-10.7601
▁PS	-10.7601
▁Cavaleiro	-10.7603
▁eleitoral	-10.7612
▁placar	-10.7612
▁combina	-10.7613
▁nativa	-10.7614
▁grave	-10.7617
▁restos	-10.7617
▁1934	-10.7617
▁!	-10.7618
▁sétimo	-10.762
▁Fun	-10.7626
▁relato	-10.7627
feri	-10.7627
▁•	-10.7631
▁marcando	-10.7633
▁Tecnologia	-10.7636
▁tradições	-10.7636
▁êxito	-10.7636
▁Cá	-10.7637
iros	-10.7637
▁Editora	-10.7639
▁habitat	-10.764
▁provável	-10.764
▁Andrew	-10.7642
▁protegida	-10.7644
▁ensina	-10.7645
▁clipe	-10.7648
▁Davis	-10.7649
▁graus	-10.765
▁On	-10.7651
▁Pin	-10.7652
▁WWE	-10.7652
▁reúne	-10.7653
ute	-10.7654
▁fornece	-10.7655
▁negócio	-10.7657
▁1968	-10.7658
rich	-10.7658
tante	-10.7661
▁1972	-10.7661
gy	-10.7664
Can	-10.7665
sma	-10.7666
eb	-10.7668
▁equilíbrio	-10.7668
sey	-10.7669
New	-10.7672
▁produções	-10.7672
LA	-10.7675
▁especialista	-10.7675
–1	-10.7676
▁cemitério	-10.7677
▁carbono	-10.7677
▁subespécie	-10.7677
▁conceitos	-10.768
tí	-10.7683
▁associada	-10.7684
▁vinho	-10.7684
▁Atletismo	-10.7685
▁1974	-10.7688
▁ninguém	-10.7689
antes	-10.7693
▁contando	-10.7697
▁livres	-10.7698
▁Flamengo	-10.7701
▁Sony	-10.7704
tana	-10.7705
▁1964	-10.7706
Du	-10.7708
▁tiro	-10.7708
▁resolução	-10.7709
mino	-10.7709
Es	-10.7712
▁tentativas	-10.7714
▁etapas	-10.7715
▁resultando	-10.7719
▁iniciar	-10.7719
▁1999.	-10.7719
▁agência	-10.772
▁partículas	-10.772
▁geográfica	-10.7721
bora	-10.7723
▁reta	-10.7724
▁1985,	-10.7724
▁diário	-10.7728
ndra	-10.773
▁Barros	-10.7734
▁Ste	-10.7735
▁presos	-10.7736
▁ciclista	-10.7737
pta	-10.7737
▁conquistado	-10.7738
ece	-10.7746
▁aceitou	-10.7747
▁hipótese	-10.7749
tê	-10.7751
α	-10.7753
pper	-10.7757
▁Teixeira	-10.7757
▁75	-10.7758
etti	-10.7761
▁fortaleza	-10.7761
▁1908	-10.7762
▁Sea	-10.7762
▁escapar	-10.7767
▁juntar	-10.7768
▁colegas	-10.7769
cionado	-10.777
▁anime	-10.7772
▁Ren	-10.7774
▁gira	-10.7776
Ru	-10.7777
▁DC	-10.7778
▁controla	-10.7778
▁2001.	-10.7783
▁cadeira	-10.7783
▁reconhece	-10.7784
▁abrir	-10.7785
▁Barão	-10.7787
▁Velho	-10.7789
▁51	-10.7789
▁substituindo	-10.7792
▁Harry	-10.7793
▁vender	-10.7796
wan	-10.7798
▁medieval	-10.7798
▁amante	-10.7799
OL	-10.7799
▁controlar	-10.7799
▁relativa	-10.78
▁ingressou	-10.7802
cionista	-10.7804
▁Ciência	-10.7805
out	-10.7806
▁sintomas	-10.7807
nó	-10.7808
dou	-10.7813
▁Pierre	-10.7818
200	-10.7821
▁transformação	-10.7822
▁arquipélago	-10.7823
▁concedido	-10.7823
idas	-10.7825
cel	-10.7827
▁passe	-10.7829
▁inteligência	-10.7831
▁escudo	-10.7832
▁Arena	-10.7834
▁estaria	-10.784
▁surge	-10.7843
▁Pinheiro	-10.7844
▁porte	-10.7845
screve	-10.7845
▁brasileiras	-10.7846
▁avanço	-10.7846
desambiguação	-10.7847
▁define	-10.7848
mini	-10.785
eja	-10.7859
▁consciência	-10.786
▁custos	-10.7862
▁visitantes	-10.7863
▁considerou	-10.7864
▁incluir	-10.7864
Pi	-10.7868
▁cavalo	-10.7868
▁definitivamente	-10.7871
kan	-10.7875
▁finalidade	-10.7877
▁apoiar	-10.7881
▁herdeiro	-10.7882
▁auxiliar	-10.7883
▁Iraque	-10.7887
▁períodos	-10.789
▁poderá	-10.7892
▁Baixa	-10.7895
▁Die	-10.7896
▁famosos	-10.7897
▁esportes	-10.7897
mio	-10.7899
▁defensor	-10.79
▁parcialmente	-10.7904
▁Lewis	-10.7905
▁familiares	-10.7912
▁exerceu	-10.7913
▁assassinado	-10.7916
▁limita	-10.7918
▁Projeto	-10.7918
▁braço	-10.7921
▁Olimpíadas	-10.7921
▁Casou	-10.7923
▁habita	-10.7923
imento	-10.7923
▁tribos	-10.7927
▁necessidades	-10.7931
▁eletrônico	-10.7932
▁incluía	-10.7935
▁Tru	-10.7935
▁chão	-10.7935
teca	-10.7936
▁Marvel	-10.794
▁Serviço	-10.7941
▁capítulos	-10.7942
rom	-10.7943
▁europeia	-10.7948
ş	-10.795
cis	-10.795
▁Adam	-10.7952
▁Branca	-10.7955
▁negociações	-10.7956
We	-10.7958
▁sucessão	-10.7959
▁certos	-10.7961
▁tratar	-10.7962
real	-10.7962
top	-10.7963
uí	-10.7966
▁escritores	-10.7966
▁pretende	-10.797
tag	-10.797
▁instalada	-10.797
▁previsto	-10.7971
▁relevo	-10.7971
gli	-10.7973
geral	-10.7975
▁toneladas	-10.7975
▁Guimarães	-10.7979
▁chance	-10.7979
▁46	-10.798
AP	-10.7981
▁1916	-10.7987
▁gosta	-10.799
▁dita	-10.799
▁esportiva	-10.7996
▁declaração	-10.7996
▁Team	-10.7997
rc	-10.7998
▁Rou	-10.7998
▁Geórgia	-10.7999
PR	-10.8001
isa	-10.8002
▁Alice	-10.8003
pondo	-10.8003
▁orçamento	-10.8004
▁1890	-10.8005
anos	-10.8009
▁Ivan	-10.8011
▁corridas	-10.8012
▁olímpica	-10.8012
▁decisões	-10.8012
▁Leo	-10.8013
▁calendário	-10.8017
Cha	-10.8017
▁escolhida	-10.8018
gni	-10.802
▁Garcia	-10.802
▁Legislativa	-10.8021
▁substituição	-10.8024
▁Grammy	-10.8025
wer	-10.8026
▁Sant	-10.8026
mica	-10.8027
▁radio	-10.8028
▁universitário	-10.8029
▁mostram	-10.803
dina	-10.8031
▁duplo	-10.8033
▁representam	-10.8038
▁Son	-10.8039
ness	-10.804
▁apartamento	-10.8042
encia	-10.8042
▁morre	-10.8042
▁piso	-10.8043
▁relacionado	-10.8043
▁Rick	-10.8043
▁Cup	-10.8043
nn	-10.8045
▁legislatura	-10.805
▁conquistando	-10.8051
▁aumentou	-10.8051
mic	-10.8056
▁SBT	-10.8063
▁1987,	-10.8065
▁opção	-10.8069
▁dirigir	-10.8071
▁equação	-10.8071
▁Clo	-10.8072
▁acreditava	-10.8073
cht	-10.8074
▁with	-10.8076
▁rádios	-10.8077
▁mostrando	-10.8081
▁salvar	-10.8081
vor	-10.8082
▁remonta	-10.8082
▁estudante	-10.8083
▁república	-10.8088
▁mini	-10.8091
nny	-10.8095
▁inauguração	-10.8098
▁aparecer	-10.81
▁consideradas	-10.8101
▁Boston	-10.8102
▁vendidos	-10.8104
▁ocupada	-10.8104
▁un	-10.8105
▁vírus	-10.8105
▁Cas	-10.8105
▁católicos	-10.8109
▁Dal	-10.811
▁integração	-10.811
▁boca	-10.811
▁bases	-10.8111
▁Junto	-10.8114
▁máquinas	-10.8117
izando	-10.8121
▁causar	-10.8125
wn	-10.8126
▁Mus	-10.8129
▁Conferência	-10.813
▁campeonatos	-10.8131
▁cata	-10.8131
▁destacou	-10.8133
▁deixado	-10.8134
▁nações	-10.8139
▁mexicano	-10.8142
viv	-10.8143
▁120	-10.8143
▁vento	-10.8144
▁rosto	-10.8146
▁liderou	-10.8147
▁Cons	-10.8151
▁vegetação	-10.8153
▁var	-10.8154
▁evidências	-10.8154
▁PlayStation	-10.8155
iste	-10.8159
miti	-10.8162
▁Stephen	-10.8164
▁patrimônio	-10.8168
]],	-10.817
▁cirurgia	-10.817
▁desfile	-10.8172
▁Vermelho	-10.8176
▁hotel	-10.8177
▁Alan	-10.818
RE	-10.8182
▁Steven	-10.8182
mada	-10.8189
▁anfíbio	-10.8189
▁Cata	-10.819
▁Res	-10.8191
▁1932	-10.8191
▁aplicada	-10.8195
▁escolher	-10.82
▁entregue	-10.82
▁1930,	-10.8202
▁53	-10.8205
zia	-10.8205
▁Península	-10.8206
▁avenida	-10.8207
▁ficam	-10.8209
▁vapor	-10.8212
▁atribuída	-10.8214
cci	-10.8215
▁recurso	-10.8218
Categoria	-10.8219
▁dispositivo	-10.8224
pica	-10.8224
Para	-10.8225
▁nasce	-10.8226
▁menciona	-10.8227
ugh	-10.8227
▁escritório	-10.8228
San	-10.823
▁notáveis	-10.823
▁Sp	-10.8233
▁gerais	-10.8234
)"	-10.8235
▁serra	-10.8236
▁campanhas	-10.8237
▁filhas	-10.8237
▁deuses	-10.8239
▁esquema	-10.824
▁Samuel	-10.824
yl	-10.824
bli	-10.8241
▁fotografia	-10.8242
▁reformas	-10.8243
▁organizar	-10.8246
▁ocasiões	-10.8248
▁lenda	-10.825
▁neuro	-10.8255
CA	-10.8255
bé	-10.8255
dência	-10.8255
▁Dona	-10.8258
▁God	-10.8258
▁hiper	-10.826
▁certificado	-10.8261
▁operacional	-10.8262
▁fundos	-10.8263
▁vencendo	-10.8264
▁Hans	-10.8265
▁amarelo	-10.8265
▁1981	-10.8266
▁checa	-10.827
▁ouvir	-10.827
ídio	-10.8273
▁sugere	-10.8276
▁erro	-10.8277
▁XII	-10.8278
▁Pedra	-10.8278
▁certas	-10.8282
▁discussão	-10.8283
▁festas	-10.8284
▁1984,	-10.8287
▁Congo	-10.8287
TA	-10.8287
▁1956	-10.8293
itos	-10.8296
▁sessão	-10.8302
▁marco	-10.8302
▁artilharia	-10.8304
▁ocorrência	-10.8304
-15	-10.8304
▁1982,	-10.831
▁estudiosos	-10.8311
▁River	-10.832
ence	-10.8323
▁vermelha	-10.8324
▁fina	-10.8326
▁abrange	-10.8327
vent	-10.8332
▁rico	-10.8333
▁poema	-10.8334
▁Sala	-10.8335
▁status	-10.834
▁representado	-10.8341
FC	-10.8342
▁aborda	-10.8343
▁transforma	-10.8346
▁Tendo	-10.8349
Star	-10.8349
▁indicação	-10.8352
▁representada	-10.8352
fil	-10.8353
reiro	-10.8354
▁w	-10.8354
cções	-10.8355
nuncia	-10.8355
▁Maior	-10.8357
▁mental	-10.8359
▁1969	-10.836
DA	-10.836
▁Hitler	-10.8361
▁itens	-10.8361
grega	-10.8363
ngue	-10.8365
▁lançaram	-10.8366
▁cedo	-10.8366
IC	-10.8367
▁governa	-10.8367
ulo	-10.8368
▁útil	-10.8369
▁Mira	-10.8371
▁estabelecida	-10.8373
▁Sara	-10.8375
▁rever	-10.8376
▁acumula	-10.8378
▁completar	-10.8378
▁surgiram	-10.838
▁Confederação	-10.8382
▁http	-10.8386
▁continuaram	-10.8391
▁cla	-10.8393
▁Chu	-10.8399
▁mesmas	-10.8399
pina	-10.8399
mou	-10.8401
▁intensa	-10.8401
ás	-10.8401
▁Clark	-10.8405
▁parecia	-10.8408
▁marcas	-10.8411
▁cálculo	-10.8416
▁frio	-10.8419
▁rendimento	-10.8421
▁causada	-10.8422
mora	-10.8427
grama	-10.8428
▁algoritmo	-10.8429
▁cineasta	-10.8429
▁Medalha	-10.8429
▁determina	-10.843
entes	-10.8431
▁aluno	-10.8432
▁1977	-10.8432
▁pesquisadores	-10.8433
▁Cardoso	-10.8438
zzo	-10.8439
▁iso	-10.8439
▁podiam	-10.8439
▁idioma	-10.8439
▁variação	-10.8442
▁1933	-10.8443
▁aprovada	-10.8447
▁contribuiu	-10.8453
core	-10.8454
▁sofrer	-10.8454
pres	-10.8456
ello	-10.8456
rn	-10.8459
tern	-10.8461
ênio	-10.8462
▁Povo	-10.8464
tto	-10.8465
▁(5	-10.8466
▁combustível	-10.8468
▁1973	-10.8471
nic	-10.8472
▁eleita	-10.8473
▁Capela	-10.8474
▁Island	-10.8476
▁terminal	-10.8482
▁disciplina	-10.8482
▁preciso	-10.8484
▁Helena	-10.8486
▁Elizabeth	-10.8486
pot	-10.8486
▁oferecer	-10.8488
▁incluída	-10.8489
▁temperaturas	-10.849
▁ameaçada	-10.8492
já	-10.8493
▁convidados	-10.8494
▁rumo	-10.8494
▁embaixador	-10.8496
▁NBA	-10.85
Ga	-10.8501
feld	-10.8506
▁amplo	-10.8509
▁Ramos	-10.8514
▁fita	-10.8516
▁Carioca	-10.8516
▁Mat	-10.8519
▁Ambos	-10.852
▁referida	-10.8521
▁comentou	-10.8521
▁adaptado	-10.8526
▁Hong	-10.8527
▁instalado	-10.8527
▁espada	-10.8531
shire	-10.8536
▁Gui	-10.8536
gão	-10.8538
▁vias	-10.854
▁Coroa	-10.8541
▁1974,	-10.8541
▁probabilidade	-10.8543
▁bolsa	-10.8543
▁aplicado	-10.8543
nesa	-10.8549
▁surgimento	-10.8552
▁Irã	-10.8552
▁mostrado	-10.8559
▁trazer	-10.8559
▁rebeldes	-10.856
▁servido	-10.8563
▁pilotos	-10.8564
▁Romênia	-10.8565
▁torcida	-10.8566
▁sabia	-10.8569
riana	-10.857
▁Jacob	-10.857
▁gran	-10.8573
▁envolvidos	-10.8574
▁Marques	-10.8574
▁resultante	-10.8576
▁Hora	-10.8578
▁ordenado	-10.8581
▁tarefa	-10.8583
eri	-10.8585
lum	-10.8587
▁estátua	-10.859
char	-10.859
▁parlamento	-10.8591
▁moeda	-10.8592
▁1971	-10.8593
▁influenciado	-10.8594
▁(20	-10.8595
▁deveriam	-10.8596
▁armazena	-10.8598
▁nela	-10.8599
▁teorias	-10.86
rista	-10.8601
▁Warner	-10.8602
▁criador	-10.8602
▁Sor	-10.8604
▁interface	-10.8605
▁avô	-10.8606
▁comprar	-10.8608
▁espalha	-10.8612
▁ângulo	-10.8613
▁tenente	-10.8615
fund	-10.8616
▁Les	-10.862
1)	-10.8621
▁masculina	-10.8622
▁declarado	-10.8624
▁vereador	-10.8627
▁partiu	-10.8629
▁falecido	-10.8631
▁ditadura	-10.8631
idi	-10.8632
▁ferramentas	-10.8635
▁jo	-10.8636
▁rap	-10.8637
tinha	-10.8637
▁costas	-10.8638
▁vieram	-10.864
▁concorda	-10.8642
▁Localiza	-10.8643
▁Bas	-10.8644
▁Língua	-10.8644
▁ligados	-10.8647
▁enterrado	-10.8648
▁Marte	-10.8649
▁Marie	-10.865
▁Britânica	-10.8653
bach	-10.8654
form	-10.8656
▁Araújo	-10.8658
▁jardim	-10.8658
▁alcance	-10.8658
▁dispositivos	-10.8661
▁Jar	-10.8662
▁Continental	-10.8662
▁expulso	-10.8662
▁zero	-10.8663
▁suporta	-10.8665
▁Bandeira	-10.8672
nh	-10.8673
▁Vários	-10.8675
▁literário	-10.8675
▁Forças	-10.8677
▁treze	-10.8677
▁gar	-10.8678
▁1980.	-10.868
▁mito	-10.8682
terra	-10.8684
ril	-10.8685
▁DJ	-10.8688
▁East	-10.8688
▁vencedora	-10.8688
▁reuniu	-10.8689
▁gen	-10.8689
▁gente	-10.8689
▁Radio	-10.8691
▁residências	-10.8693
▁municipais	-10.8693
▁considerável	-10.8693
▁quadra	-10.8696
▁possuir	-10.8696
▁ben	-10.8701
▁Mau	-10.8706
▁semifinal	-10.8707
cie	-10.8715
▁Capital	-10.8716
▁causando	-10.8718
▁fuga	-10.8719
▁entidades	-10.8719
reo	-10.872
▁Group	-10.8725
▁aceitar	-10.8725
▁Dam	-10.8726
ret	-10.8727
ópolis	-10.8728
▁transmitida	-10.8729
▁dedicou	-10.8734
▁desconhecida	-10.8736
▁recepção	-10.8736
▁Light	-10.8736
▁relatos	-10.8738
▁Contra	-10.8742
tã	-10.8743
far	-10.8744
▁seca	-10.8746
oma	-10.8747
ál	-10.8747
▁investimento	-10.8751
▁fracasso	-10.8754
▁pensa	-10.8754
▁exatamente	-10.8755
▁Apresenta	-10.8757
▁origina	-10.8758
▁envolvido	-10.876
▁Corinthians	-10.876
▁vinha	-10.8761
▁cujas	-10.8762
▁Filosofia	-10.8765
▁culturas	-10.8768
▁considerar	-10.877
nismo	-10.8772
▁1935	-10.8773
▁dependendo	-10.8773
▁candidatura	-10.8774
▁forçado	-10.8776
▁nomeação	-10.8778
▁Prémio	-10.8778
▁monumento	-10.8779
▁ocupar	-10.8779
ici	-10.878
▁aventura	-10.8786
▁ven	-10.8787
▁destruir	-10.8788
▁Azul	-10.8788
▁atinge	-10.8789
-10	-10.8792
▁laterais	-10.8792
▁Metro	-10.8792
▁identificar	-10.8795
▁policiais	-10.8797
lton	-10.8798
itário	-10.88
ídeos	-10.88
▁pol	-10.8802
lú	-10.8803
▁XIV	-10.8804
SE	-10.8804
▁retirado	-10.8804
▁Tóquio	-10.8805
▁contos	-10.8805
▁Jaime	-10.8806
▁preparação	-10.8807
▁fantasia	-10.881
▁provoca	-10.8811
▁1976,	-10.8811
▁brancos	-10.8814
gno	-10.8815
▁Pol	-10.8816
▁Operação	-10.8817
▁transformar	-10.8817
▁encerrou	-10.8819
▁Toronto	-10.8819
▁incluído	-10.882
▁península	-10.8823
▁quilómetros	-10.8823
lve	-10.8826
▁presta	-10.8827
▁Juventude	-10.8828
▁variáveis	-10.8828
▁anunciada	-10.8829
▁estilos	-10.8829
cil	-10.8829
liber	-10.883
▁reco	-10.8832
▁adicionais	-10.8834
-5	-10.8836
▁Tempo	-10.8837
SC	-10.8839
▁56	-10.8844
jar	-10.8845
▁intensidade	-10.8846
▁Sto	-10.8846
▁Portanto	-10.8847
nhe	-10.8847
▁Gama	-10.8848
о	-10.885
▁extensa	-10.8851
▁depressão	-10.8854
inter	-10.8854
▁Zé	-10.8857
cimento	-10.8857
▁circular	-10.8857
▁vizinhos	-10.886
rato	-10.8863
▁gregos	-10.8863
▁lutas	-10.887
▁pedras	-10.8871
Si	-10.8871
▁gene	-10.8871
luz	-10.8872
má	-10.8872
▁feliz	-10.8873
▁muçulmanos	-10.8873
▁atribuído	-10.8874
▁permanecer	-10.8874
▁Macau	-10.8879
itária	-10.8886
▁escritas	-10.8886
▁impostos	-10.889
ides	-10.8891
▁atos	-10.8894
▁particulares	-10.8895
ún	-10.8895
▁permitem	-10.8897
lau	-10.8898
▁Anos	-10.89
▁assassino	-10.8901
▁esperado	-10.8903
▁escreve	-10.8905
▁cavalaria	-10.8905
▁começando	-10.8906
▁poderoso	-10.8911
rri	-10.8911
ño	-10.8913
▁poemas	-10.8915
▁proporciona	-10.8916
▁Hil	-10.8917
▁Anderson	-10.892
▁Quatro	-10.892
▁Torres	-10.8923
▁1979,	-10.8926
▁sonho	-10.8927
▁suspeita	-10.8928
▁transferiu	-10.8928
▁Media	-10.8928
▁mau	-10.8931
▁círculo	-10.8932
oc	-10.8934
elli	-10.8935
▁Neu	-10.894
▁contraste	-10.894
▁equipas	-10.894
▁liderado	-10.894
▁Prefeitura	-10.8942
zan	-10.8942
▁responde	-10.8943
tribu	-10.8944
ys	-10.8945
▁financeiro	-10.8945
▁construídos	-10.8947
▁escritora	-10.8947
Melhor	-10.895
▁Andrea	-10.8953
culo	-10.8954
▁exemplares	-10.8954
ânica	-10.8954
front	-10.8956
▁concentra	-10.8963
▁símbolos	-10.8963
▁emprega	-10.8963
▁abandonar	-10.8964
▁Sky	-10.8965
▁celular	-10.8966
▁Código	-10.8968
▁clássicos	-10.897
▁Finalmente	-10.897
▁Jon	-10.8972
▁lin	-10.8972
▁Gales	-10.8974
▁online	-10.8975
AN	-10.8977
Par	-10.8978
CO	-10.898
▁começam	-10.8982
▁Munique	-10.8983
ibe	-10.8985
▁Network	-10.8987
▁Thi	-10.8988
gur	-10.8989
▁concluída	-10.8991
Wi	-10.8991
▁aço	-10.8992
▁orquídea	-10.8992
▁consta	-10.8992
Ti	-10.8994
▁observado	-10.8994
▁Tai	-10.8994
▁apoiado	-10.8996
▁reduzido	-10.8996
▁Num	-10.8996
▁poderosa	-10.8999
▁telefone	-10.9001
▁inteiramente	-10.9001
▁250	-10.9003
▁viva	-10.9009
▁adequada	-10.901
▁Vista	-10.9012
▁Maia	-10.9012
▁Carta	-10.9014
▁mitologia	-10.9016
▁posta	-10.9023
ae	-10.9026
▁far	-10.9026
▁prima	-10.9028
uais	-10.9028
▁viajou	-10.9029
▁anel	-10.9031
▁entraram	-10.9032
▁Good	-10.9034
▁News	-10.9034
▁entender	-10.9036
▁Cai	-10.9039
▁Aqui	-10.9039
▁comida	-10.9044
▁portal	-10.9044
▁gosto	-10.9044
ore	-10.9045
▁Play	-10.9047
ilo	-10.9047
▁ingleses	-10.9047
red	-10.9047
▁VIII	-10.9052
▁dedica	-10.9052
dge	-10.9053
▁experimenta	-10.9057
ef	-10.9058
▁árabes	-10.9062
▁briga	-10.9065
back	-10.9066
uda	-10.9066
▁transformou	-10.9066
▁Bolívia	-10.907
▁UEFA	-10.907
chefe	-10.9071
▁descrever	-10.9075
▁aplica	-10.9076
én	-10.9077
▁sentir	-10.9078
ern	-10.9081
▁Ross	-10.9087
▁"(	-10.9088
▁Ala	-10.9088
▁intelectual	-10.9089
SS	-10.9093
▁territorial	-10.9094
iais	-10.9095
▁pobres	-10.9096
pôs	-10.9096
▁Equador	-10.9098
▁coletiva	-10.9099
▁Baviera	-10.9103
▁pastor	-10.9105
▁Marc	-10.9106
▁ferroviária	-10.9108
dó	-10.9108
▁1000	-10.9111
▁desafio	-10.9111
▁coletânea	-10.9112
▁1910	-10.9113
▁bilheteria	-10.9115
▁eficiente	-10.9115
onde	-10.9116
▁Castel	-10.9117
▁propaganda	-10.9117
▁destruída	-10.9123
boy	-10.9125
▁objectivo	-10.9126
dico	-10.9128
toria	-10.9129
▁amarela	-10.9131
▁Hart	-10.9132
▁foca	-10.9133
▁Frei	-10.9137
▁ondas	-10.9137
cena	-10.9138
▁1968,	-10.914
liano	-10.9141
DE	-10.9142
pal	-10.9143
▁percorre	-10.9148
▁desempenha	-10.915
lismo	-10.9151
lica	-10.9151
▁adversário	-10.9153
gie	-10.9154
lor	-10.9155
primi	-10.916
▁CE	-10.916
▁deserto	-10.916
ary	-10.9161
▁estágio	-10.9161
▁duplas	-10.9163
▁tornado	-10.9164
tária	-10.9166
▁existia	-10.9168
▁quarenta	-10.9168
▁Bad	-10.9168
▁autonomia	-10.9169
▁Política	-10.9169
▁Blue	-10.9171
▁solicita	-10.9174
EP	-10.9174
▁Cerca	-10.9175
sy	-10.9176
▁Cruzeiro	-10.9177
▁franco	-10.9178
▁vidro	-10.9179
ax	-10.9183
▁exposições	-10.9184
▁coberta	-10.9184
tologia	-10.9184
▁perseguição	-10.9188
▁1975,	-10.9189
ciano	-10.9191
▁Clara	-10.9191
▁Girl	-10.9191
▁católico	-10.9191
Não	-10.9193
▁literacia	-10.9196
▁garoto	-10.9197
▁ficava	-10.9198
▁acompanha	-10.92
▁Your	-10.9204
▁jurídica	-10.9206
▁observa	-10.9208
-16	-10.9209
▁Supremo	-10.921
▁ABC	-10.9211
▁epi	-10.9213
inhos	-10.9218
▁destruído	-10.9221
▁esfera	-10.9222
▁digitais	-10.9225
▁Opera	-10.9226
▁Mara	-10.9228
▁Napoleão	-10.9229
▁ordena	-10.9229
gol	-10.923
▁obtendo	-10.9234
▁notícia	-10.9235
cca	-10.9235
▁filósofo	-10.9235
▁interessante	-10.9236
teiro	-10.9238
ME	-10.9239
árias	-10.9239
▁dimensão	-10.9243
▁Neto	-10.9243
▁bancos	-10.9244
▁atender	-10.9248
▁Socialista	-10.9253
ate	-10.9254
▁colega	-10.9255
▁belga	-10.9255
▁prisioneiros	-10.9256
▁antecessor	-10.9257
▁cana	-10.9262
▁Gun	-10.9262
▁australiano	-10.9262
▁controvérsia	-10.9262
▁essencialmente	-10.9263
▁identificação	-10.9264
▁Duas	-10.9268
▁hit	-10.9269
pole	-10.9269
▁gráfico	-10.9269
▁Hay	-10.927
▁Coelho	-10.9272
▁manifestações	-10.9275
▁astrônomo	-10.9276
▁Lúcio	-10.9277
▁gera	-10.9278
▁leite	-10.9279
rigi	-10.9285
▁conselheiro	-10.9286
▁Br	-10.9288
▁‘	-10.929
▁baixista	-10.929
▁rendeu	-10.929
▁GP	-10.9291
▁move	-10.9295
▁genética	-10.9296
tom	-10.9297
▁geo	-10.9297
▁mecanismo	-10.9298
▁olho	-10.9302
▁ligações	-10.9304
▁Metropolitana	-10.9305
▁presidencial	-10.9305
▁visível	-10.9305
mel	-10.9306
▁Domingos	-10.9306
▁Mé	-10.9314
▁consulta	-10.9314
dista	-10.9317
▁semifinais	-10.9319
ace	-10.9319
jogador	-10.932
▁causas	-10.9321
▁variável	-10.9324
ceno	-10.9328
▁Borgonha	-10.9328
▁fabricação	-10.9332
ł	-10.9333
▁1957	-10.9336
gil	-10.9338
▁Ul	-10.9339
▁Fora	-10.9339
▁atração	-10.9341
▁Corporation	-10.9343
gá	-10.9343
queiro	-10.9343
▁similares	-10.9344
▁fruto	-10.9345
▁tocou	-10.9345
IN	-10.9345
▁aquisição	-10.9347
ificou	-10.9348
▁distintas	-10.9349
▁equipamento	-10.9352
▁cérebro	-10.9352
▁comprou	-10.9353
▁gerou	-10.9355
▁Ky	-10.9356
▁Universo	-10.9357
▁mangá	-10.9357
▁1918	-10.936
▁reduzida	-10.9361
▁migra	-10.9362
ude	-10.9362
▁afro	-10.9364
▁citado	-10.9365
▁Sete	-10.9365
▁cristão	-10.9365
▁And	-10.9366
▁coronel	-10.9369
lock	-10.9372
▁dão	-10.9372
Wa	-10.9373
cido	-10.9374
▁parti	-10.9376
▁variações	-10.9378
amp	-10.9379
▁Dra	-10.938
▁enviada	-10.9382
▁levada	-10.9383
▁Som	-10.9383
▁cons	-10.9384
▁irmãs	-10.9385
▁diversidade	-10.9386
▁Free	-10.9386
▁mediante	-10.9391
▁Jane	-10.9392
scar	-10.9392
▁ovos	-10.9393
▁contribuição	-10.9394
▁declínio	-10.9395
▁1905	-10.9397
▁Quinta	-10.9397
teu	-10.9397
▁cento	-10.9398
▁decidiram	-10.9399
▁descendente	-10.9401
▁YouTube	-10.9405
▁compromisso	-10.9405
▁asas	-10.9406
▁1983,	-10.9406
mera	-10.9407
if	-10.9408
▁Polónia	-10.941
endi	-10.9411
▁introduzida	-10.9411
▁Vir	-10.9417
▁interação	-10.9417
house	-10.9417
chy	-10.942
▁retirar	-10.9428
▁Trabalho	-10.9428
▁placa	-10.9429
FA	-10.9429
▁1962	-10.9431
cide	-10.9431
▁Fal	-10.9433
▁Manoel	-10.9437
rac	-10.944
guarda	-10.944
▁disto	-10.9442
▁fronteiras	-10.9449
▁segredo	-10.9453
gres	-10.9454
▁homônimo	-10.9458
serv	-10.9458
▁graduação	-10.9459
▁Ucrânia	-10.9462
▁inscrição	-10.9469
▁mexicana	-10.9472
▁1906	-10.9472
▁1996.	-10.9472
▁reis	-10.9472
▁Lagoa	-10.9476
bos	-10.9476
tinga	-10.9477
cano	-10.948
▁1966	-10.9481
▁Frente	-10.9482
lhes	-10.9487
nner	-10.9487
ví	-10.9489
▁tripulação	-10.9491
▁critérios	-10.9493
▁garota	-10.9494
▁fri	-10.9497
RJ	-10.95
ificado	-10.9501
▁Pequim	-10.9502
hen	-10.9503
▁Rita	-10.9504
▁Sab	-10.9505
mata	-10.9506
▁preços	-10.9507
isco	-10.951
▁adquirido	-10.9511
▁continuidade	-10.9511
▁candidata	-10.9511
▁sozinho	-10.9511
▁1973,	-10.9512
▁Má	-10.9512
▁fatos	-10.9514
▁gado	-10.9517
▁contínua	-10.952
▁esquerdo	-10.9521
▁Leon	-10.9526
tual	-10.9526
▁cra	-10.9526
▁abandonou	-10.9528
▁quartas	-10.9528
▁Chico	-10.9532
▁propostas	-10.9532
▁húmidas	-10.9535
vil	-10.9535
▁ultrapassa	-10.9536
▁Numa	-10.9537
▁acabaram	-10.9537
▁premiado	-10.954
▁implantação	-10.954
lice	-10.9542
▁tecido	-10.9544
▁constitucional	-10.9545
▁Libertadores	-10.9545
▁More	-10.9546
▁colunas	-10.9547
▁Kelly	-10.9551
▁nega	-10.9552
úria	-10.9554
▁cinematográfica	-10.9554
▁soviética	-10.9554
▁secreta	-10.9555
▁Finlândia	-10.9555
▁mora	-10.9556
rti	-10.9558
sten	-10.9559
▁vencedores	-10.9559
▁placas	-10.9564
▁ventos	-10.9565
cana	-10.9568
rinha	-10.9572
▁sofre	-10.9575
▁medi	-10.9575
ray	-10.9576
▁ref	-10.9577
▁Sen	-10.958
▁separa	-10.9583
dita	-10.9583
▁pl	-10.9584
▁progresso	-10.9584
nov	-10.9584
▁estradas	-10.9585
▁trajetória	-10.9589
gueira	-10.9589
NT	-10.9591
▁Series	-10.9591
▁bizantino	-10.9593
▁alimentação	-10.9594
▁Rey	-10.9595
▁soluções	-10.9598
▁Columbia	-10.9598
▁ruínas	-10.9601
▁integral	-10.9601
▁Rui	-10.9603
▁cliente	-10.9607
▁Base	-10.9608
▁vendidas	-10.9612
▁Monteiro	-10.9612
▁Botafogo	-10.9613
riz	-10.9615
▁divulgado	-10.9616
isti	-10.9617
▁monarquia	-10.9623
Fe	-10.9623
vision	-10.9623
▁plataformas	-10.9625
▁adotado	-10.9627
▁morreram	-10.9631
▁Indonésia	-10.9632
nz	-10.9633
▁confiança	-10.9638
▁Spe	-10.964
▁Spi	-10.9643
tima	-10.9644
sie	-10.9646
▁atingido	-10.9647
uco	-10.9649
▁1964,	-10.965
▁quente	-10.9651
▁túmulo	-10.9652
▁justifica	-10.9654
▁hino	-10.9654
▁1909	-10.9656
▁oferecido	-10.9657
▁pago	-10.9657
▁Giovanni	-10.9657
▁Mou	-10.9657
▁afeta	-10.9658
ili	-10.9659
▁cent	-10.9659
gica	-10.9661
▁primeiramente	-10.9661
▁apresentava	-10.9664
rar	-10.9665
▁cumprir	-10.9667
▁Duarte	-10.9667
bó	-10.9668
▁Las	-10.9668
▁adotou	-10.9669
▁menina	-10.9671
▁Little	-10.9671
▁jazz	-10.9672
lea	-10.9672
▁Ryan	-10.9675
▁supostamente	-10.9675
▁fechada	-10.9676
▁técnicos	-10.9677
▁Ker	-10.9678
▁Pico	-10.9678
▁largo	-10.9682
▁proteínas	-10.9683
rismo	-10.9685
▁manifesta	-10.9689
▁2020	-10.9689
fri	-10.969
▁saque	-10.9691
▁diálogo	-10.9691
▁rurais	-10.9692
çada	-10.9692
▁relaciona	-10.9695
▁Down	-10.9695
▁faziam	-10.9696
▁chuva	-10.9697
▁identifica	-10.9698
▁Lourenço	-10.9701
▁Milão	-10.9701
vesti	-10.9701
gues	-10.9704
▁pares	-10.9705
▁Caetano	-10.9706
dir	-10.9708
cionário	-10.9709
▁System	-10.9711
Ver	-10.9714
▁visando	-10.9714
▁gabinete	-10.9716
▁simultaneamente	-10.9716
▁Heart	-10.9716
tério	-10.9716
▁gerar	-10.9718
▁Allen	-10.972
▁Templo	-10.9721
▁investimentos	-10.9722
▁Existe	-10.9722
▁convento	-10.9724
▁lar	-10.9724
▁Orquestra	-10.9726
▁1907	-10.9727
campeonato	-10.9727
▁euros	-10.973
▁intervalo	-10.9734
:00	-10.9734
▁Poder	-10.9735
▁obtido	-10.9738
rola	-10.9739
ácia	-10.974
▁Felipe	-10.9742
▁estimado	-10.9744
▁1998.	-10.9745
▁virtual	-10.9746
▁morta	-10.9749
▁1914	-10.975
▁Magalhães	-10.9751
▁companheiro	-10.9753
▁anuncia	-10.9755
tórios	-10.9756
▁Ron	-10.976
▁pertencia	-10.9762
▁Século	-10.9762
▁naval	-10.9762
sí	-10.9762
▁Johann	-10.9764
rey	-10.9764
▁SP	-10.9767
▁raramente	-10.9769
▁Anti	-10.977
▁setores	-10.977
▁Wrestling	-10.9775
▁Xavier	-10.9775
▁Pala	-10.9776
SB	-10.9777
▁extrema	-10.9779
▁comentários	-10.9779
▁rochas	-10.978
▁cantou	-10.978
▁Piauí	-10.9781
pat	-10.9782
▁Moçambique	-10.9785
▁juventude	-10.9785
ons	-10.9787
▁800	-10.9789
▁inspirada	-10.979
bis	-10.9792
kins	-10.9794
▁conferência	-10.9804
▁Moreira	-10.9805
▁pretendia	-10.9805
▁apresentador	-10.9808
▁organismos	-10.9808
▁Fé	-10.9809
▁Fort	-10.981
▁infraestrutura	-10.981
▁Encontra	-10.9811
kar	-10.9811
fin	-10.9811
▁paciente	-10.9815
▁conexão	-10.9815
▁Veneza	-10.9816
▁construções	-10.9817
fort	-10.9819
▁diferencia	-10.982
▁1972,	-10.982
▁ida	-10.9822
▁incon	-10.9824
▁célula	-10.9824
—	-10.9828
▁nativos	-10.9829
▁Voleibol	-10.983
▁Assis	-10.9833
▁relacionada	-10.9834
▁South	-10.9836
▁Caso	-10.9837
▁rivalidade	-10.9837
▁Prata	-10.9838
meno	-10.9838
▁extremidade	-10.984
day	-10.9841
▁destinado	-10.9841
nea	-10.9844
▁Alfredo	-10.9845
▁revisão	-10.9849
▁Bernard	-10.9851
▁concessão	-10.9852
ento	-10.9853
▁talento	-10.9855
▁futura	-10.9856
▁Fred	-10.9857
▁ferrovia	-10.9858
NA	-10.9858
▁adicional	-10.9859
fic	-10.9859
▁filmado	-10.986
▁criadas	-10.9861
▁Acredita	-10.9861
▁Mega	-10.9863
▁Plano	-10.9863
▁término	-10.9865
▁estrangeiro	-10.9865
Um	-10.9869
▁Power	-10.9872
▁Belas	-10.9873
dent	-10.9876
ick	-10.9877
▁Sydney	-10.9878
▁executado	-10.9879
quete	-10.988
www	-10.988
▁visa	-10.9881
▁segmento	-10.9886
▁parceiro	-10.9887
▁explora	-10.9887
▁Campinas	-10.9889
▁sétima	-10.989
Super	-10.9894
▁nobres	-10.9895
▁repórter	-10.9895
▁Ensino	-10.9896
▁mantida	-10.9896
▁companheiros	-10.9898
▁Industrial	-10.99
▁recta	-10.9903
▁areia	-10.9904
▁Constantino	-10.9904
rela	-10.9906
▁amostra	-10.9907
▁convidada	-10.991
▁tornaria	-10.991
▁IX	-10.9912
▁cobra	-10.9912
▁1904	-10.9916
▁especialistas	-10.9916
▁agregado	-10.9917
nik	-10.9917
ssel	-10.9919
▁concluído	-10.9919
sim	-10.9919
▁tornam	-10.9919
▁latitude	-10.9921
▁600	-10.9921
▁profundo	-10.9921
▁animado	-10.9922
▁recordes	-10.9923
▁atribui	-10.9926
▁zo	-10.9927
bria	-10.9928
▁Wei	-10.9929
agens	-10.9929
▁repertório	-10.9931
yu	-10.9937
▁eletrônicos	-10.9937
▁casada	-10.9938
fun	-10.9939
▁resta	-10.994
▁primário	-10.9941
play	-10.9942
▁espetáculo	-10.9943
ric	-10.9954
▁constantemente	-10.9955
▁Francis	-10.9957
[	-10.9958
imo	-10.9959
▁suicídio	-10.9961
▁ofensiva	-10.9966
▁Democrática	-10.9966
ças	-10.9966
▁dependência	-10.9967
▁Comércio	-10.9967
▁Miami	-10.9967
▁torcedores	-10.9968
▁servindo	-10.9968
▁agrícola	-10.9969
▁bat	-10.9972
▁abandonado	-10.9973
▁cri	-10.9973
▁Houve	-10.9977
▁trabalhava	-10.9979
▁Jay	-10.9979
▁cavalos	-10.9981
▁Bulgária	-10.9981
▁tortura	-10.9983
blo	-10.9983
▁Esco	-10.9983
▁indígena	-10.9984
▁exílio	-10.9984
tir	-10.9986
▁adolescente	-10.9989
▁Gau	-10.9991
▁57	-10.9993
▁observação	-10.9994
lot	-10.9995
▁sonda	-10.9996
▁cita	-10.9997
▁Hip	-11.0001
▁corrupção	-11.0002
▁baseados	-11.0002
▁Douglas	-11.0002
▁Geo	-11.0006
ball	-11.0007
iya	-11.0009
queira	-11.001
▁actualmente	-11.0011
▁Mora	-11.0011
pter	-11.0014
▁1978,	-11.0019
▁mim	-11.0021
▁observar	-11.0022
▁cristianismo	-11.0022
▁sepultado	-11.0022
▁Sco	-11.0023
graf	-11.0024
▁Mill	-11.0024
▁Carnaval	-11.0027
▁Morreu	-11.0027
▁fio	-11.003
▁alcançando	-11.003
mit	-11.0031
▁longas	-11.0035
▁laboratório	-11.0036
▁conter	-11.0037
▁Cab	-11.004
▁Pesquisa	-11.0042
▁conseguindo	-11.0042
▁Win	-11.0043
▁Home	-11.0043
▁menino	-11.0043
mond	-11.0043
▁preta	-11.0045
▁crença	-11.0048
▁contribuições	-11.0049
nico	-11.005
▁mapa	-11.0051
Hu	-11.0052
▁Iniciou	-11.0052
▁dizia	-11.0053
▁Rai	-11.0053
▁tribunal	-11.0054
tró	-11.0055
ncial	-11.0056
▁UF	-11.0057
tam	-11.0057
▁Hotel	-11.0057
▁classificada	-11.0059
▁dedicar	-11.006
▁jurídico	-11.0063
▁radiação	-11.0063
▁jornada	-11.0068
▁1981,	-11.007
▁IBGE	-11.007
▁fome	-11.0071
entre	-11.0072
▁Luc	-11.0072
▁basquete	-11.0073
▁nobreza	-11.0076
stan	-11.0078
▁adquirir	-11.0078
▁coloração	-11.0079
Est	-11.0081
ust	-11.0082
rosa	-11.0085
▁sustenta	-11.0089
▁Reno	-11.0092
▁bons	-11.0093
▁espiral	-11.0095
org	-11.0097
▁respondeu	-11.01
▁game	-11.01
AF	-11.0102
▁surpresa	-11.0104
táveis	-11.0106
▁oportunidades	-11.0108
ério	-11.0109
ui	-11.0111
▁Estudou	-11.0112
põe	-11.0115
▁soviético	-11.0115
cultura	-11.0117
spira	-11.0118
▁lidar	-11.0119
▁económica	-11.0119
▁cem	-11.0119
▁Major	-11.012
▁companhias	-11.0123
urban	-11.0123
▁Ave	-11.0124
▁Anne	-11.0124
▁Romana	-11.0124
▁acerca	-11.0125
▁ignora	-11.0125
▁vestido	-11.0125
▁1970.	-11.0129
▁impressão	-11.013
▁Banda	-11.013
▁Wolf	-11.0132
▁necessários	-11.0135
ati	-11.0141
▁acusações	-11.0143
▁hu	-11.0145
▁acontecer	-11.0147
▁Beach	-11.0149
rinho	-11.0149
▁decorrer	-11.0149
▁ouvido	-11.015
Americano	-11.015
bina	-11.015
▁Bragança	-11.0151
▁Lake	-11.0155
estrutura	-11.0156
▁Negra	-11.0161
▁reprodução	-11.0164
▁privado	-11.0164
constitu	-11.0165
prov	-11.0166
hon	-11.0166
▁fon	-11.0168
▁Web	-11.0168
▁alternativo	-11.0169
▁Apple	-11.017
zy	-11.0176
aco	-11.0176
nne	-11.0177
gun	-11.0177
▁Jeff	-11.0178
▁paróquia	-11.0178
▁1940,	-11.0189
▁estabelece	-11.0191
▁dono	-11.0192
▁camadas	-11.0195
▁normas	-11.0195
▁reputação	-11.0197
fina	-11.0198
Chi	-11.0198
quando	-11.0201
▁escrevendo	-11.0202
▁infra	-11.0202
▁Lim	-11.0203
▁bro	-11.0205
num	-11.0207
▁organizou	-11.0207
▁play	-11.0208
Mor	-11.0209
▁distribui	-11.0209
▁dinâmica	-11.0209
yan	-11.0212
▁colonização	-11.0212
Alpes	-11.0213
▁platina	-11.0213
íssimo	-11.0216
ciais	-11.0216
▁Palma	-11.0216
▁Cláudio	-11.0217
▁Dessa	-11.0218
▁específicos	-11.0218
▁subfamília	-11.0219
vul	-11.0222
▁ban	-11.0222
▁Grêmio	-11.0223
▁Dark	-11.0224
▁significativo	-11.0226
▁(2007)	-11.0233
ks	-11.0233
lov	-11.0233
piro	-11.0234
▁vasta	-11.0235
▁Bull	-11.0236
▁Alma	-11.0236
▁campeões	-11.0237
▁Google	-11.0238
Bi	-11.0242
rick	-11.0242
▁lutou	-11.0244
▁perante	-11.0246
▁Shin	-11.0247
▁metropolitana	-11.0249
▁Tha	-11.0249
▁propôs	-11.025
My	-11.0253
▁eleitores	-11.0257
▁CA	-11.0259
▁Diário	-11.0259
▁Nasceu	-11.0259
4,	-11.0259
▁cientista	-11.0263
▁;	-11.0264
▁inteligente	-11.0264
▁retirou	-11.0264
veja	-11.0266
▁esqui	-11.0268
▁altar	-11.0268
▁1997.	-11.0269
▁Fur	-11.0271
quar	-11.0271
▁Mineiro	-11.0274
▁Socorro	-11.0275
▁borda	-11.0276
▁numerosos	-11.028
▁sentença	-11.0281
▁tecnologias	-11.0281
dida	-11.0284
▁2020,	-11.0287
▁considerando	-11.0288
▁Alba	-11.0289
▁58	-11.0289
SI	-11.029
▁emprestado	-11.029
▁sólido	-11.0291
ika	-11.0291
▁1945	-11.0294
▁Berg	-11.0294
ult	-11.0295
▁Filipinas	-11.0296
tifica	-11.0298
▁oitavo	-11.0301
▁ia	-11.0302
ume	-11.0303
▁continha	-11.0303
▁Bat	-11.0304
▁Deputados	-11.031
posit	-11.0311
▁Metal	-11.0313
▁Angel	-11.0313
dale	-11.0314
-6	-11.0314
▁acrescenta	-11.0314
▁cantando	-11.0315
▁específica	-11.0316
▁Através	-11.0316
▁computação	-11.0317
▁quadros	-11.0317
▁transformado	-11.0319
▁actividade	-11.0321
▁Hamilton	-11.0322
:"	-11.0323
▁traduzido	-11.0323
▁distante	-11.0324
▁sessões	-11.0326
▁exercer	-11.0327
▁substância	-11.0329
▁Queen	-11.0329
3.	-11.033
▁Floresta	-11.0331
▁claramente	-11.0331
porta	-11.0336
▁arquivo	-11.0336
zza	-11.0336
Ve	-11.0337
▁formiga	-11.0337
▁PIB	-11.0338
uel	-11.0342
▁célebre	-11.0343
▁artificial	-11.0348
▁competir	-11.0349
lítico	-11.0351
doras	-11.0353
▁Tudo	-11.0356
▁DNA	-11.0358
▁povoação	-11.036
▁executar	-11.036
mmer	-11.0362
▁Renato	-11.0363
▁escultura	-11.0367
cito	-11.0373
sin	-11.0376
head	-11.0376
▁perfil	-11.0377
▁Aragão	-11.038
▁Howard	-11.0381
preende	-11.0381
▁preocupação	-11.0386
▁Kan	-11.0388
▁jardas	-11.039
▁obtida	-11.039
Esta	-11.0392
▁indicações	-11.0393
▁eletro	-11.0393
▁acreditam	-11.0394
▁seleções	-11.0396
▁(14	-11.0396
cip	-11.0404
▁Qu	-11.0406
▁sábado	-11.0406
▁Ré	-11.0406
▁calça	-11.041
▁Sai	-11.041
▁lutador	-11.041
oides	-11.0411
▁dezenas	-11.0412
tinho	-11.0412
▁ka	-11.0413
MP	-11.0416
▁temática	-11.0416
▁registrado	-11.0417
▁seguidores	-11.0417
▁adicionado	-11.0419
▁oposto	-11.0419
▁resolveu	-11.042
quin	-11.0426
▁formaram	-11.0427
▁homo	-11.0435
▁galeria	-11.0436
▁profunda	-11.0439
▁Polo	-11.0439
lheiro	-11.0439
▁organismo	-11.0442
▁necessita	-11.0442
▁registrada	-11.0443
▁alegando	-11.0444
▁Russo	-11.0445
▁colonos	-11.0446
▁substituiu	-11.0447
▁escolheu	-11.0447
▁incorporada	-11.0448
▁Dun	-11.0453
Per	-11.0455
bula	-11.0456
▁moedas	-11.0459
▁judaica	-11.0459
▁XI	-11.0459
cade	-11.0462
▁beneficia	-11.0463
▁nascida	-11.0466
▁Cat	-11.0467
▁mensagens	-11.047
nita	-11.0471
▁Independência	-11.0475
▁exclusiva	-11.0475
▁infantaria	-11.0476
▁[...]	-11.0476
US	-11.0476
▁proposto	-11.0478
▁Vera	-11.0478
▁Cin	-11.0479
▁mínima	-11.048
▁prepara	-11.0486
▁pal	-11.0486
▁classificados	-11.0488
mbe	-11.0489
▁deixaram	-11.049
▁envolvimento	-11.0491
segundo	-11.0492
Ci	-11.0493
cé	-11.0494
EM	-11.0496
▁taxas	-11.0497
glia	-11.0498
▁negativa	-11.0498
zzi	-11.0501
▁primavera	-11.0502
dinho	-11.0505
▁Geografia	-11.0508
ave	-11.0509
▁Sound	-11.0512
▁austríaco	-11.0512
▁evidente	-11.0513
▁indústrias	-11.0513
▁180	-11.0514
▁1992.	-11.0515
▁cantores	-11.0515
▁abre	-11.0517
osas	-11.0522
ib	-11.0523
▁Got	-11.0524
▁web	-11.0525
▁proximidades	-11.0526
е	-11.0528
ST	-11.0528
▁colabora	-11.0529
▁assistir	-11.0529
▁Argélia	-11.0534
▁Eurovisão	-11.0534
▁fil	-11.0534
▁condados	-11.0535
▁Unidade	-11.0537
▁voos	-11.0538
▁ilegal	-11.0539
▁emergência	-11.0539
▁colina	-11.054
▁socialista	-11.054
ínio	-11.054
▁ambientes	-11.0541
stal	-11.0543
▁açúcar	-11.0543
▁Coronel	-11.0544
▁vivia	-11.0544
▁Bruce	-11.0544
▁terror	-11.0546
tl	-11.0546
▁Oficial	-11.055
0.	-11.0552
▁Kevin	-11.0552
ulação	-11.0555
▁radical	-11.0555
▁Economia	-11.0555
▁Friedrich	-11.0555
_4	-11.0556
▁Ever	-11.0565
▁Corre	-11.0566
▁concepção	-11.0567
▁encontraram	-11.057
aka	-11.057
▁arca	-11.0571
Va	-11.0571
▁entretenimento	-11.0571
▁Fonseca	-11.0571
▁cair	-11.0572
▁rapper	-11.0573
▁Palmeiras	-11.0574
▁tocando	-11.0579
▁adição	-11.0581
▁Antiga	-11.0581
▁1945,	-11.0587
ardo	-11.0587
▁profissão	-11.0588
▁haja	-11.0588
sor	-11.0588
▁Dream	-11.0589
▁video	-11.0589
▁fun	-11.059
gráfica	-11.0596
▁designada	-11.0597
nen	-11.0598
▁Nicolau	-11.0606
▁1969,	-11.0606
▁Agência	-11.0606
▁Gustavo	-11.0607
▁preservação	-11.0608
ere	-11.0608
▁explicar	-11.0609
▁utilizam	-11.0609
▁Margarida	-11.0609
distrito	-11.061
▁retrato	-11.0611
fim	-11.0612
▁consolida	-11.0613
▁Neves	-11.0613
▁Vis	-11.0614
▁ocidentais	-11.0615
▁Cher	-11.0615
▁Revista	-11.0616
▁val	-11.0622
▁Nunes	-11.0622
▁Aero	-11.0625
▁divididos	-11.0625
▁intérprete	-11.0625
▁derivada	-11.0626
hard	-11.0627
▁z	-11.0629
▁Comunicação	-11.0631
▁artilheiro	-11.0631
▁distinção	-11.0631
▁cultivo	-11.0631
▁pega	-11.0631
▁envolveu	-11.0631
▁Quanto	-11.0632
▁evidência	-11.0632
teira	-11.0635
▁ministério	-11.0636
▁Eleitoral	-11.0637
▁August	-11.0638
▁LP	-11.0644
▁estima	-11.0644
vista	-11.0645
▁Circuito	-11.0647
ógrafo	-11.0647
▁escolar	-11.0648
▁Meio	-11.0648
▁barco	-11.0649
pí	-11.065
▁mandou	-11.065
▁Física	-11.0653
▁Originalmente	-11.0656
▁Mala	-11.0656
duc	-11.0658
▁Ash	-11.0658
▁herança	-11.0658
cco	-11.066
▁Ros	-11.0661
▁Fan	-11.0661
ições	-11.0663
▁Abu	-11.0667
▁positivo	-11.0669
▁Sh	-11.0672
▁emissoras	-11.0676
py	-11.0677
▁batalhas	-11.0678
▁pul	-11.0679
▁1903	-11.068
▁avança	-11.0682
leiro	-11.0683
▁Vivo	-11.0686
▁baseia	-11.0686
▁trio	-11.0688
▁sente	-11.0689
▁acabar	-11.0689
▁Solar	-11.069
▁Bio	-11.0691
▁Caio	-11.0693
▁completou	-11.0693
▁conjuntos	-11.0696
▁positivas	-11.0697
▁cabe	-11.07
▁polêmica	-11.0701
▁transferida	-11.0701
▁basicamente	-11.0702
▁sobreviventes	-11.0702
▁Mis	-11.0705
▁adequado	-11.0707
▁financiamento	-11.0707
▁numerosas	-11.0707
▁Ag	-11.071
old	-11.0711
▁Joan	-11.0711
itz	-11.0713
▁precisão	-11.0714
▁caracterizado	-11.0714
▁estúdios	-11.0716
▁Azevedo	-11.0718
▁compositores	-11.0719
▁guerras	-11.0722
bot	-11.0723
▁console	-11.0724
rbi	-11.0727
▁revolucionário	-11.0729
▁cinza	-11.0736
▁sócio	-11.0737
▁Henri	-11.0739
fon	-11.0739
▁Shu	-11.0742
▁reeleito	-11.0747
Ni	-11.0748
▁Ang	-11.0748
▁Caxias	-11.0751
bon	-11.0751
▁Situa	-11.0753
▁voltado	-11.0754
Bar	-11.0755
▁chi	-11.0756
▁Forma	-11.0757
▁planeja	-11.0758
▁esperava	-11.0759
▁Miller	-11.0761
rid	-11.0761
▁atitude	-11.0761
▁Circ	-11.0763
▁Leonardo	-11.0764
▁janelas	-11.0765
▁vencido	-11.0767
título	-11.0768
▁diagnóstico	-11.077
▁Beira	-11.0777
▁intuito	-11.0778
▁Channel	-11.0778
▁sons	-11.0781
▁continental	-11.0784
▁matou	-11.0785
iko	-11.0785
▁pin	-11.0786
▁Olímpico	-11.0786
▁Jason	-11.0788
▁secundário	-11.0789
tions	-11.0792
▁jornalismo	-11.0795
▁módulo	-11.0795
▁Cristina	-11.0795
ivo	-11.0798
▁regularmente	-11.0798
▁movimenta	-11.0798
Ele	-11.0799
▁postos	-11.0799
▁major	-11.08
▁Mateus	-11.0801
ntino	-11.0802
▁1977,	-11.0804
▁câmera	-11.0806
tações	-11.0806
▁implementação	-11.0808
▁Bau	-11.0812
▁componente	-11.0813
▁curtas	-11.0816
▁prevista	-11.0818
trans	-11.0819
▁Correia	-11.0819
▁vira	-11.0819
cl	-11.082
▁Parte	-11.0824
▁1889	-11.0827
▁Beau	-11.0827
▁tre	-11.0828
▁Song	-11.0829
▁proprietários	-11.0831
▁preparado	-11.0831
▁Phil	-11.0832
▁iluminação	-11.0832
▁alteração	-11.0832
▁tráfego	-11.0833
▁registo	-11.0833
▁Virgem	-11.0834
▁1870	-11.0836
▁Hen	-11.0839
▁festivais	-11.0839
▁doutor	-11.0839
Brasil	-11.0841
quer	-11.0841
▁Faria	-11.0842
▁protestos	-11.0842
▁Mariana	-11.0843
▁auxílio	-11.0844
▁clã	-11.0844
▁Rico	-11.0848
▁Book	-11.0851
▁FA	-11.0852
▁1880	-11.0853
▁Space	-11.0853
▁derivado	-11.0854
▁Chefe	-11.0854
eli	-11.0854
▁Curso	-11.0857
▁art	-11.0857
▁tecidos	-11.0857
▁Moura	-11.0859
rita	-11.086
▁africana	-11.0865
▁blocos	-11.0867
çado	-11.0867
▁Fle	-11.0868
▁primária	-11.0868
nhos	-11.0868
▁observou	-11.0872
jan	-11.0873
essa	-11.0873
▁consideram	-11.0874
▁fundamentais	-11.0874
PC	-11.088
Un	-11.0881
▁exclusivo	-11.0883
PT	-11.0884
▁Neo	-11.0884
▁Dance	-11.0884
▁liberal	-11.0888
▁viúva	-11.0889
▁Jovem	-11.0889
▁comprova	-11.0891
▁1967,	-11.0894
▁alterado	-11.0894
▁falsa	-11.0895
of	-11.0896
▁abuso	-11.0896
thi	-11.0896
▁estimula	-11.0897
▁sorte	-11.0897
▁Best	-11.0901
▁procurar	-11.0903
▁1891	-11.0903
▁Motor	-11.0907
▁chamava	-11.0907
ug	-11.0908
mber	-11.0911
▁Sofia	-11.0911
▁paisagem	-11.0914
Fo	-11.0915
▁medalhista	-11.0916
▁distribuídos	-11.0917
tempo	-11.0917
▁ofereceu	-11.0917
pho	-11.092
BC	-11.092
▁Pur	-11.0922
▁financeiros	-11.0923
cke	-11.0924
▁registrou	-11.0925
▁preocupa	-11.0925
▁Cou	-11.0925
▁marcar	-11.0926
▁elogiou	-11.0927
▁prejudica	-11.0927
▁essencial	-11.0928
▁erros	-11.0931
▁Normandia	-11.0934
▁Coração	-11.0935
▁Video	-11.0935
▁empregado	-11.0936
ami	-11.0938
▁1994.	-11.0938
▁imediato	-11.0939
▁compilação	-11.0939
▁verifica	-11.0943
▁apresentadora	-11.0943
grado	-11.0944
▁ramos	-11.0944
Americana	-11.095
▁comenta	-11.095
bulo	-11.0951
mat	-11.0952
Tra	-11.0952
▁Marrocos	-11.0955
ize	-11.0956
une	-11.0958
▁participando	-11.0961
pressão	-11.0966
▁melodia	-11.0967
▁pôde	-11.0967
▁wa	-11.0968
▁voltada	-11.0969
ália	-11.0971
▁formalmente	-11.0971
▁editado	-11.0975
▁Blo	-11.0975
▁econômicas	-11.0976
▁vistos	-11.0976
ome	-11.0978
▁impossível	-11.0978
vento	-11.098
éis	-11.098
▁regulares	-11.0983
▁terço	-11.0983
▁Sicília	-11.0983
▁Pad	-11.0984
▁diploma	-11.0988
▁transporta	-11.0991
▁Antigo	-11.0991
key	-11.0991
▁compete	-11.0991
reto	-11.0992
ET	-11.0992
▁configuração	-11.0993
▁Junta	-11.0993
▁colapso	-11.0995
▁transmitir	-11.0995
▁autora	-11.0995
▁Noite	-11.0996
▁incorpora	-11.0997
▁resolve	-11.0997
cion	-11.1
▁Mol	-11.1
▁oponente	-11.1
▁psico	-11.1
▁sementes	-11.1001
▁cinemas	-11.1003
▁crédito	-11.1004
▁1995.	-11.1004
▁penal	-11.1005
▁Sau	-11.1005
▁judicial	-11.1006
▁típico	-11.1007
verso	-11.1008
▁argumento	-11.1013
▁dizem	-11.1013
▁assentamento	-11.1015
pton	-11.1016
▁europeias	-11.1017
▁by	-11.1018
▁Andre	-11.102
▁explosão	-11.1028
▁federais	-11.1028
▁publicadas	-11.1032
▁Você	-11.1036
▁sucedida	-11.1036
▁Stu	-11.1037
▁Angra	-11.1039
anti	-11.1041
Á	-11.1041
▁1902	-11.1043
kel	-11.1043
▁distribuído	-11.1045
▁Aquitânia	-11.1045
▁turistas	-11.1046
▁violenta	-11.1051
▁cheia	-11.1051
▁(6	-11.1052
▁estreito	-11.1057
live	-11.1057
▁marcante	-11.1059
ming	-11.1059
▁ama	-11.106
▁Dentro	-11.1061
▁ler	-11.1063
▁Aliança	-11.1063
▁cooperação	-11.1066
rec	-11.1068
menta	-11.1068
▁planejamento	-11.1071
▁72	-11.1074
▁voleibol	-11.1075
▁conseguido	-11.108
▁Massachusetts	-11.1082
▁Mulher	-11.1082
▁parlamentar	-11.1082
▁comparado	-11.1082
▁Porta	-11.1083
▁pensar	-11.1084
▁(...)	-11.1084
▁María	-11.1087
cola	-11.1088
▁passagens	-11.1088
▁esteja	-11.1088
▁sentimentos	-11.1089
nja	-11.109
▁favorito	-11.109
lares	-11.1093
rena	-11.1093
▁aí	-11.1099
dino	-11.1099
fá	-11.11
ejo	-11.11
mite	-11.11
▁enviar	-11.1101
cessão	-11.1102
▁Ernesto	-11.1104
▁permanecendo	-11.1104
CC	-11.1105
▁Í	-11.1107
▁Tornou	-11.1108
▁tubo	-11.1109
▁reunir	-11.111
dá	-11.111
hua	-11.1111
▁ciclone	-11.1113
time	-11.1113
lect	-11.1113
▁tarefas	-11.1113
▁visitou	-11.1113
▁viviam	-11.1114
▁operar	-11.1115
*	-11.1115
▁treino	-11.1116
bury	-11.1117
▁Sampaio	-11.1119
▁cuidados	-11.112
▁Ple	-11.112
▁perderam	-11.1121
íssima	-11.1122
▁residentes	-11.1123
▁astro	-11.1124
▁intenso	-11.1125
pis	-11.1128
vre	-11.1128
▁PT	-11.1131
▁UCI	-11.1132
▁aprender	-11.1133
estre	-11.1133
▁Reforma	-11.1134
▁Az	-11.1136
incluindo	-11.1139
▁precisamente	-11.114
ílio	-11.1141
▁fila	-11.1141
▁aparições	-11.1142
▁Cos	-11.1142
▁Lady	-11.1142
dução	-11.1146
▁coordena	-11.1146
anga	-11.1146
▁atingindo	-11.1147
▁pesa	-11.115
▁promessa	-11.1153
▁ciclismo	-11.1154
▁fêmeas	-11.1154
ânio	-11.1156
▁teatral	-11.1159
▁Sy	-11.1159
ástico	-11.116
▁linear	-11.1161
canção	-11.1163
ffe	-11.1165
▁pratica	-11.1166
psi	-11.1167
roso	-11.1167
▁sp	-11.1168
▁vagas	-11.117
cter	-11.1173
pino	-11.1174
▁religiões	-11.1176
▁democracia	-11.1176
You	-11.1183
▁round	-11.1185
▁Met	-11.1186
lk	-11.1192
rama	-11.1193
▁cozinha	-11.1194
▁Port	-11.1198
▁alfabeto	-11.1199
▁governos	-11.1199
ear	-11.1199
▁industriais	-11.12
▁Tanto	-11.12
▁exame	-11.1202
▁concedida	-11.1205
3)	-11.1205
colo	-11.1205
▁chegam	-11.121
▁Prússia	-11.121
▁Arm	-11.1212
▁restauração	-11.1212
ingen	-11.1213
volv	-11.1214
▁cá	-11.1215
▁Dave	-11.1215
▁Manchester	-11.1216
vada	-11.1218
▁cordas	-11.1218
▁aprecia	-11.1218
▁recupera	-11.122
▁Way	-11.1221
▁Len	-11.1224
ácio	-11.1226
▁Colônia	-11.1228
▁parecem	-11.1229
hel	-11.1232
jos	-11.1233
▁compreensão	-11.1234
▁fur	-11.1238
▁Britânico	-11.1239
▁construídas	-11.124
▁Xi	-11.1241
avi	-11.1246
▁hectares	-11.125
quilo	-11.1251
▁decoração	-11.1251
▁Vas	-11.1252
flex	-11.1253
ière	-11.1254
▁1971,	-11.1256
▁adquirida	-11.1256
▁Tel	-11.1259
filme	-11.1259
▁dúvida	-11.1261
▁variam	-11.1261
▁Democrata	-11.1262
▁competência	-11.1262
▁premiação	-11.1264
▁Viana	-11.1266
▁portuguesas	-11.1266
▁acampamento	-11.1268
▁Road	-11.1269
–19	-11.1271
▁integrada	-11.1272
cau	-11.1273
▁Estatística	-11.1274
▁Faleceu	-11.1274
▁deficiência	-11.1274
▁publicidade	-11.1274
▁hipo	-11.1276
lógicos	-11.1278
▁Cru	-11.1278
▁Velha	-11.128
ído	-11.128
All	-11.1281
iga	-11.1282
▁Marcel	-11.1282
▁capita	-11.1284
▁(12	-11.1285
▁plástico	-11.1285
▁Laura	-11.1287
▁Festa	-11.1288
▁(10	-11.1288
esa	-11.129
▁romances	-11.1292
▁Walt	-11.1292
▁Ap	-11.1293
▁Lang	-11.1293
chin	-11.1294
▁cano	-11.1295
bul	-11.1299
ndro	-11.13
▁caracterizada	-11.1301
▁telescópio	-11.1303
▁Jacques	-11.1304
ículo	-11.1305
▁publicar	-11.1307
AD	-11.1307
▁consistia	-11.1308
▁paixão	-11.1308
▁1920,	-11.1308
▁procede	-11.1309
gido	-11.1312
▁básico	-11.1314
▁tipicamente	-11.1314
▁brancas	-11.1315
▁conto	-11.1316
▁interpretando	-11.1318
ij	-11.1318
▁confirma	-11.1319
▁torneios	-11.1319
▁obrigado	-11.132
▁clínica	-11.132
▁patriarca	-11.132
▁Bowl	-11.1322
zel	-11.1325
▁longitude	-11.1326
inhas	-11.1327
▁Anton	-11.1331
▁Acacia	-11.134
▁Rap	-11.1341
▁recompensa	-11.1343
▁Cris	-11.1344
▁escura	-11.1344
óis	-11.1344
▁tran	-11.1345
ical	-11.1348
▁reuniões	-11.1349
▁acorda	-11.1351
▁Vive	-11.1353
fan	-11.1354
▁Comando	-11.1355
▁Kh	-11.1355
▁confi	-11.1356
▁costumes	-11.1358
cê	-11.1361
mail	-11.1363
▁orientado	-11.1371
Bra	-11.1371
▁áudio	-11.1372
▁deusa	-11.1373
EN	-11.1374
▁Mello	-11.1375
▁prop	-11.1375
▁separados	-11.1381
▁1962,	-11.1382
▁Petro	-11.1384
slav	-11.1384
▁divide	-11.1385
▁RTP	-11.1385
▁Are	-11.1386
▁50%	-11.1386
▁combater	-11.1387
uso	-11.1389
▁Mir	-11.139
▁Moore	-11.1393
▁entrevistas	-11.1395
▁feira	-11.1395
▁1966,	-11.1397
▁rosa	-11.14
▁russos	-11.1401
▁Silveira	-11.1401
▁Comp	-11.1402
▁0,	-11.1403
Ch	-11.1403
▁associa	-11.1403
ë	-11.1406
▁passava	-11.1406
▁PR	-11.1409
▁gerações	-11.1412
▁Tailândia	-11.1413
▁cães	-11.1414
▁Rom	-11.1415
▁baía	-11.1416
Fu	-11.1416
▁funcionar	-11.1417
▁gama	-11.1418
ries	-11.1419
▁0,1	-11.1422
▁Carey	-11.1425
RI	-11.1425
▁teologia	-11.1427
damente	-11.1429
ibne	-11.1429
▁cruzamento	-11.1431
▁brasão	-11.1432
▁Secret	-11.1433
▁1901	-11.1439
▁fraco	-11.1439
▁pernas	-11.144
flu	-11.1442
▁Medi	-11.1445
▁Marquês	-11.1448
▁teorema	-11.1448
▁alcançado	-11.1453
▁Flores	-11.1453
prefeito	-11.1454
▁decidir	-11.1454
▁faria	-11.1457
phy	-11.1459
▁membrana	-11.146
▁vertical	-11.1461
Sha	-11.1462
ope	-11.1462
▁Campeão	-11.1463
ciência	-11.1463
ônicos	-11.1465
▁Americano	-11.1465
▁Alfred	-11.1466
▁Dead	-11.1466
rido	-11.1467
▁identificado	-11.1468
▁circula	-11.1473
▁alimentar	-11.1473
▁equipado	-11.1474
OR	-11.1474
▁Carmo	-11.1475
▁Bis	-11.1476
▁destacando	-11.1478
▁pla	-11.1478
▁Mosteiro	-11.1478
▁Pires	-11.1479
▁testemunha	-11.148
▁Illinois	-11.148
▁raios	-11.1482
▁comprado	-11.1486
▁Alexandria	-11.1487
press	-11.1487
▁satélites	-11.1487
▁dependente	-11.1487
▁classifica	-11.1488
▁Nigéria	-11.1489
▁chineses	-11.149
▁Cel	-11.149
▁Wo	-11.149
▁precede	-11.149
▁enzima	-11.1496
▁aumentando	-11.1496
▁Ribeira	-11.1496
▁correntes	-11.15
▁suíço	-11.1501
▁Bros	-11.1502
▁jamais	-11.1502
ares	-11.151
tine	-11.1511
▁polo	-11.1511
▁Maurício	-11.1513
▁Lobo	-11.1514
▁coletivo	-11.1515
ddy	-11.1516
▁Rica	-11.1516
nomia	-11.1516
▁Ferr	-11.1518
▁buraco	-11.1519
▁graves	-11.152
▁sério	-11.1521
▁móveis	-11.1524
▁auge	-11.1525
▁chuvas	-11.1525
▁cirílico	-11.1525
▁End	-11.1526
▁precisam	-11.1529
II	-11.1529
▁peito	-11.153
▁transformada	-11.1531
▁nascente	-11.1531
▁Ohio	-11.1532
AB	-11.1532
▁gal	-11.1533
ástica	-11.1535
▁vinda	-11.1535
▁caro	-11.1536
lay	-11.1536
▁atendimento	-11.1537
▁colônias	-11.1542
lig	-11.1543
▁London	-11.1543
▁jogado	-11.1546
▁polar	-11.1548
▁Cana	-11.155
lien	-11.1552
ní	-11.1554
sil	-11.1554
▁culpa	-11.1555
▁personalidades	-11.1555
stone	-11.1555
▁Dur	-11.1556
▁ensaios	-11.1557
mul	-11.1558
ítica	-11.156
5,	-11.1561
▁torres	-11.1562
ína	-11.1563
▁machos	-11.1564
▁regente	-11.1566
▁imita	-11.1568
af	-11.1569
▁Line	-11.1569
▁agrícolas	-11.1569
▁cópia	-11.1572
ère	-11.1572
▁Pensilvânia	-11.1572
▁gradualmente	-11.1575
▁braços	-11.1575
nada	-11.1575
▁Et	-11.1578
▁Tomás	-11.1579
▁queima	-11.158
ping	-11.1581
▁Tais	-11.1583
Camponotus	-11.1584
▁visitar	-11.1585
ísmo	-11.1587
Lei	-11.159
▁cinquenta	-11.159
▁IP	-11.1595
jin	-11.1595
cora	-11.1596
diana	-11.1598
▁Gene	-11.1601
▁lagos	-11.1602
▁ferramenta	-11.1602
▁sujeito	-11.1603
rell	-11.1603
▁registra	-11.1604
bur	-11.1607
▁consenso	-11.1608
▁pobreza	-11.161
organ	-11.161
▁exércitos	-11.1611
▁Democrático	-11.1614
▁Testamento	-11.1614
▁ocasionalmente	-11.1614
▁sacerdote	-11.1615
▁Bot	-11.1616
▁Relações	-11.162
xia	-11.1624
▁gigante	-11.1624
▁Geralmente	-11.1625
▁instituto	-11.1626
▁trânsito	-11.1626
▁indicam	-11.1628
▁abrigo	-11.163
Qua	-11.163
▁popularmente	-11.1631
▁ganharam	-11.1632
hal	-11.1634
▁produzidas	-11.1634
▁milho	-11.1636
▁Troféu	-11.1638
▁quaisquer	-11.1641
▁1895	-11.1643
▁controlada	-11.1644
▁sentimento	-11.1645
▁62	-11.1645
▁flora	-11.1648
▁mestrado	-11.165
▁cerâmica	-11.165
bou	-11.1651
▁Bond	-11.1652
▁vendida	-11.1652
▁álcool	-11.1656
▁aproximação	-11.1657
▁Joana	-11.1657
▁conversão	-11.1657
prop	-11.1658
▁1892	-11.166
▁Patrick	-11.1663
▁Xbox	-11.1663
▁alimento	-11.1663
vir	-11.1664
▁adolescentes	-11.1664
▁experimental	-11.1665
▁Eslováquia	-11.1668
▁Vaticano	-11.1668
Art	-11.1669
yon	-11.167
▁mudaram	-11.1671
▁teórico	-11.1674
▁químico	-11.1677
▁66	-11.1679
AT	-11.1679
▁Gran	-11.168
less	-11.1681
▁Human	-11.1684
▁elaboração	-11.1686
▁desenvolvidos	-11.1687
▁camp	-11.1687
lmente	-11.1689
▁respeita	-11.1689
▁1896	-11.1691
▁acadêmica	-11.1692
▁elevação	-11.1692
tula	-11.1695
but	-11.1696
▁Luísa	-11.1697
▁continuação	-11.1697
tila	-11.1698
▁Amazônia	-11.1698
▁seguiram	-11.1698
▁constantes	-11.1699
▁apaixona	-11.1699
▁Gru	-11.17
▁Anjo	-11.1701
ceu	-11.1703
▁Digital	-11.1704
kon	-11.1705
▁Justin	-11.1707
riamente	-11.1708
▁Gonçalo	-11.171
▁admira	-11.1711
▁centrais	-11.1712
elas	-11.1713
▁frutos	-11.1713
▁eleger	-11.1714
▁Anthony	-11.1716
▁Álvaro	-11.1716
▁zagueiro	-11.1716
▁pedir	-11.1716
ísta	-11.1719
▁85	-11.172
quista	-11.1722
▁Audi	-11.1722
▁Albuquerque	-11.1722
▁permitia	-11.1722
▁Concílio	-11.1723
▁reações	-11.1724
over	-11.1725
▁(2011).	-11.1727
▁oitava	-11.1727
00.000	-11.1727
▁seguro	-11.1728
▁sexuais	-11.1728
▁distintos	-11.1729
Rei	-11.1729
▁Ó	-11.173
▁raiz	-11.1731
▁Barba	-11.1732
▁Sarah	-11.1733
▁trazendo	-11.1735
war	-11.1739
▁Maca	-11.174
mundo	-11.174
▁Gregório	-11.174
▁tomado	-11.1741
pie	-11.1741
▁Town	-11.1742
Santa	-11.1742
▁atende	-11.1745
▁ativista	-11.1747
lhas	-11.1747
Geral	-11.1748
▁legado	-11.1748
▁fabricado	-11.1751
▁firma	-11.1752
▁facilita	-11.1756
Che	-11.1757
▁navegação	-11.1757
▁consequências	-11.1759
▁Stan	-11.176
▁relatado	-11.1763
enne	-11.1763
▁ativos	-11.1764
stic	-11.1766
▁Sudeste	-11.1771
▁específicas	-11.1771
▁isolada	-11.1771
▁gerado	-11.1772
ped	-11.1776
dam	-11.1784
▁reservas	-11.1785
▁Manaus	-11.1789
▁ataca	-11.1795
▁Alemão	-11.1796
▁aviso	-11.1796
▁recebem	-11.1797
puta	-11.1797
ffer	-11.1798
ción	-11.1799
▁tende	-11.1801
▁Jimmy	-11.1802
▁exige	-11.1802
▁Charlie	-11.1802
▁santo	-11.1802
ord	-11.1804
pura	-11.1805
▁Constitucional	-11.1807
▁Rugby	-11.1807
▁1991.	-11.1807
▁combinado	-11.1808
Pre	-11.1808
▁sediado	-11.1809
▁HD	-11.1809
▁aparelho	-11.1812
▁pioneiro	-11.1812
▁Cabral	-11.1814
▁Wild	-11.1815
▁plan	-11.1815
▁Otto	-11.1815
▁soldado	-11.1818
verde	-11.182
ixo	-11.182
▁Feira	-11.1825
▁provocou	-11.1825
▁59	-11.1826
tenção	-11.1827
▁Rich	-11.1828
gina	-11.1828
▁acompanhada	-11.1829
▁Rad	-11.1829
▁censura	-11.1831
▁permissão	-11.1832
IT	-11.1833
▁elétrico	-11.1834
▁cru	-11.1835
▁traços	-11.1835
▁Pal	-11.1836
▁Indústria	-11.1837
CB	-11.1838
▁conquistas	-11.1841
▁designar	-11.1842
mm	-11.1843
▁Benjamin	-11.1844
tras	-11.1844
▁subiu	-11.1844
▁74	-11.1846
aga	-11.1847
▁físicas	-11.1847
▁continuam	-11.1847
▁Alpes	-11.1849
▁Atlanta	-11.185
▁aprovou	-11.185
▁Trabalhou	-11.185
▁(7	-11.1853
▁Princesa	-11.1853
▁confirmada	-11.1854
▁causado	-11.1855
▁Getúlio	-11.1856
▁Visconde	-11.1856
▁Johnny	-11.1858
▁controlado	-11.1861
▁buscar	-11.1861
▁designa	-11.1862
▁atacado	-11.1862
▁Rub	-11.1863
▁Área	-11.1863
▁acusa	-11.1865
rões	-11.1867
dela	-11.1867
pela	-11.1868
▁persegui	-11.1869
uz	-11.1869
ntar	-11.1869
▁impresso	-11.1872
▁63	-11.1875
▁montado	-11.1876
▁executa	-11.1876
▁bispos	-11.1877
▁arroz	-11.1881
▁arredores	-11.1883
▁vela	-11.1884
▁diminuição	-11.1884
▁Institute	-11.1886
▁dispara	-11.1887
▁inteira	-11.1892
▁inclusão	-11.1894
▁Freitas	-11.1895
▁pesquisador	-11.1897
▁1898	-11.1898
▁substâncias	-11.1898
▁Bene	-11.1899
▁mantinha	-11.1899
▁61	-11.19
▁moléculas	-11.1904
▁76	-11.1904
▁australiana	-11.1905
▁facilidade	-11.1905
▁efetiva	-11.1905
▁terrenos	-11.1905
▁Wall	-11.1907
missões	-11.1908
▁1885	-11.1911
▁Nor	-11.1911
▁Fall	-11.1913
▁articula	-11.1915
▁aceito	-11.1916
úl	-11.1917
▁Raul	-11.1919
UN	-11.1919
▁Artur	-11.192
▁Gan	-11.1921
ū	-11.1922
.""	-11.1925
chan	-11.1935
▁Convenção	-11.1936
enses	-11.1937
▁1960.	-11.1937
▁ênfase	-11.1942
▁usina	-11.1943
rat	-11.1945
▁Mediterrâneo	-11.1948
▁gu	-11.195
sburg	-11.195
▁morar	-11.1954
▁jardins	-11.1954
▁assalto	-11.1955
▁disposição	-11.1955
Her	-11.1957
▁Donald	-11.1959
▁divindade	-11.196
▁garantia	-11.196
▁espectro	-11.196
▁viajar	-11.1962
aux	-11.1963
éticos	-11.1963
▁citada	-11.1964
▁aliado	-11.1965
▁estética	-11.1967
stria	-11.1967
▁confusão	-11.1967
mura	-11.197
▁tirar	-11.197
ip	-11.1973
▁Deste	-11.1974
EL	-11.1975
▁minissérie	-11.1979
▁Pé	-11.1979
▁destacar	-11.198
▁Sabe	-11.198
▁68	-11.1982
lão	-11.1985
fica	-11.1986
▁biografia	-11.1987
▁proximidade	-11.1988
▁ATP	-11.1989
▁Membro	-11.1989
▁Beat	-11.1991
▁possuindo	-11.1992
▁noiva	-11.1993
ving	-11.1995
▁sentiu	-11.1998
▁introduziu	-11.1998
iri	-11.2
▁Dick	-11.2001
▁Us	-11.2003
ónico	-11.2003
▁sucedeu	-11.2004
▁olhar	-11.2005
▁cas	-11.2008
▁alerta	-11.2008
iço	-11.2009
▁manobra	-11.201
iense	-11.2011
▁elétrons	-11.2013
▁destinada	-11.2014
color	-11.2014
▁estrelou	-11.2016
▁escuro	-11.2017
▁profundamente	-11.2017
tsch	-11.2018
ao	-11.2023
ólico	-11.2024
▁Maz	-11.2025
versão	-11.2026
▁benefícios	-11.2027
nc	-11.2029
▁vereadores	-11.2029
▁sugeriu	-11.2029
▁assessor	-11.2029
▁Agora	-11.203
▁reconhecer	-11.2035
nária	-11.2035
▁Interior	-11.2036
▁Leite	-11.2036
▁históricas	-11.2036
▁encarregado	-11.2036
▁Meu	-11.2037
inga	-11.2041
▁vivos	-11.2041
▁magnético	-11.2041
▁Liberdade	-11.2041
▁mer	-11.2042
▁mistas	-11.2044
▁Musical	-11.2045
formula	-11.2045
▁pobre	-11.2045
▁necessárias	-11.2045
▁Técnico	-11.2047
▁assumindo	-11.2047
▁protocolo	-11.2047
lier	-11.2048
▁Integra	-11.2053
▁Eva	-11.2054
▁pas	-11.2055
▁precisava	-11.2058
▁adotada	-11.2059
к	-11.206
▁Gordon	-11.2061
▁mortes	-11.2061
marca	-11.2062
▁sobrenome	-11.2063
Don	-11.2065
▁garantiu	-11.2066
▁iguais	-11.2066
▁encerramento	-11.2067
▁Billy	-11.2068
▁impedi	-11.2068
eau	-11.2068
▁semestre	-11.2069
quo	-11.207
▁emissão	-11.207
▁Baía	-11.2071
▁meninas	-11.2072
▁gerente	-11.2075
▁delegado	-11.2078
▁Girls	-11.2079
leta	-11.2079
▁estou	-11.2083
pido	-11.2084
lva	-11.2085
▁idiomas	-11.2089
ográfica	-11.2091
▁actua	-11.2092
▁autorização	-11.2098
▁Salão	-11.2098
▁1988.	-11.21
deu	-11.2102
tona	-11.2103
▁enviados	-11.2103
eca	-11.2103
▁Kam	-11.2103
uga	-11.2103
▁Ribeirão	-11.2104
▁Oxford	-11.2104
▁estranho	-11.2104
▁comunista	-11.2106
▁seco	-11.2106
▁Ficou	-11.2106
▁ido	-11.2108
▁Micro	-11.2108
cchi	-11.211
▁Quin	-11.2111
nsi	-11.2113
▁estiveram	-11.2114
▁Sue	-11.2114
▁reflete	-11.2116
▁exposto	-11.2118
▁possibilita	-11.2122
▁Paquistão	-11.2122
▁opções	-11.2124
▁Gla	-11.2125
og	-11.2126
▁capturado	-11.2127
mbra	-11.2127
▁minas	-11.213
maz	-11.2131
lógico	-11.2132
taria	-11.2132
▁fortuna	-11.2135
vic	-11.2136
▁encomenda	-11.2137
▁concedeu	-11.2138
ora	-11.214
▁1,5	-11.214
▁troféu	-11.2141
ough	-11.2142
▁estivesse	-11.2145
▁endereço	-11.2148
▁externo	-11.2148
roma	-11.2152
▁Vermelha	-11.2154
▁procedimento	-11.2154
▁catedral	-11.216
▁protótipo	-11.216
▁apoiou	-11.2161
▁atraso	-11.2161
site	-11.2162
▁Ari	-11.2162
vão	-11.2163
▁favorável	-11.2165
pensa	-11.2165
Pri	-11.2166
▁bela	-11.2166
▁secreto	-11.2167
▁iniciaram	-11.2168
▁explorar	-11.2168
pula	-11.2169
▁produzindo	-11.2173
▁dispõe	-11.2174
▁créditos	-11.2174
▁nacionalidade	-11.2176
▁Nar	-11.2178
▁fazê	-11.2179
▁Cambridge	-11.2179
▁cabelo	-11.218
▁1897	-11.2185
▁Fran	-11.2185
▁Nobel	-11.2185
▁Wilhelm	-11.2185
▁maestro	-11.2185
▁influencia	-11.219
▁fol	-11.219
▁físicos	-11.219
▁Virgínia	-11.2191
▁imediata	-11.2192
▁Carlo	-11.2192
FL	-11.2193
▁67	-11.2194
▁amador	-11.2194
ngle	-11.2195
▁Victoria	-11.2197
▁1888	-11.2198
▁reconstrução	-11.2198
▁Espanhola	-11.2198
▁desastre	-11.2199
▁Republicano	-11.2199
▁recebida	-11.2199
ulou	-11.2201
▁distingui	-11.2201
▁gráfica	-11.2203
▁rece	-11.2204
▁holandês	-11.2205
▁sagrou	-11.2205
▁criaram	-11.2205
▁Morro	-11.2206
▁tentaram	-11.2206
lev	-11.2207
rock	-11.2207
▁Vin	-11.2211
▁Science	-11.2211
▁AM	-11.2211
▁Pot	-11.2213
ótico	-11.2214
ónia	-11.2215
▁xadrez	-11.2217
▁estiver	-11.222
issa	-11.2221
▁terrestres	-11.2223
▁conecta	-11.2225
▁desafia	-11.2226
▁Várias	-11.2226
▁Ry	-11.2227
ntia	-11.2227
▁crescer	-11.2228
▁diária	-11.2228
rras	-11.2228
▁ré	-11.2228
▁Dados	-11.2229
▁afiliada	-11.2231
ovich	-11.2233
▁conce	-11.2234
illo	-11.2235
▁amistoso	-11.2236
gru	-11.2236
▁avançado	-11.2237
ort	-11.2239
▁capturar	-11.2241
▁ligadas	-11.2241
▁aposta	-11.2242
▁intelectuais	-11.2243
▁perdida	-11.2244
▁folha	-11.2245
rel	-11.2246
▁Vil	-11.2248
▁tributo	-11.2249
▁Empresa	-11.2249
▁prote	-11.2252
▁alfa	-11.2253
▁testemunho	-11.2255
▁puni	-11.2255
dim	-11.2257
▁libertação	-11.226
▁processamento	-11.2262
▁soberano	-11.2262
▁baixos	-11.2262
▁from	-11.2262
▁rejeita	-11.2263
designada	-11.2264
▁veterano	-11.2268
▁punk	-11.2268
▁pronuncia	-11.227
▁persa	-11.2271
nhas	-11.2271
▁entende	-11.2271
▁associações	-11.2272
▁irre	-11.2272
▁pronto	-11.2274
▁mamíferos	-11.2274
▁servia	-11.2275
▁Temporada	-11.2275
▁insu	-11.228
▁pleno	-11.228
▁divisa	-11.2281
▁Conforme	-11.2282
▁usava	-11.2284
assi	-11.2287
▁disposto	-11.2288
▁humanas	-11.2289
▁Ol	-11.2291
▁tocada	-11.2292
▁santuário	-11.2294
▁ultra	-11.2294
▁Tam	-11.2294
▁Sporting	-11.2298
▁Borges	-11.2306
▁subir	-11.2306
▁academia	-11.2306
▁nossos	-11.2307
▁(8	-11.2309
▁quantidades	-11.231
▁síntese	-11.2313
▁simboliza	-11.2313
▁1899	-11.2314
▁Blu	-11.2315
▁determinação	-11.2317
▁confia	-11.2318
▁singular	-11.2319
▁remix	-11.2323
▁havendo	-11.2326
▁escultor	-11.2326
▁Jen	-11.2326
▁fraca	-11.2327
▁pontua	-11.2332
▁separado	-11.2336
omi	-11.2336
▁semelhança	-11.2336
GA	-11.2337
▁gráficos	-11.2337
▁violento	-11.2338
ntista	-11.2339
▁cuidado	-11.234
▁Morte	-11.234
▁Plan	-11.2342
▁Guy	-11.2342
ães	-11.2342
sua	-11.2345
gonal	-11.2345
▁centímetros	-11.2345
▁gato	-11.2345
▁Colo	-11.2346
▁trabalhado	-11.2348
▁Esc	-11.235
gena	-11.235
▁Susan	-11.235
▁prestígio	-11.2351
▁Russell	-11.2351
▁1886	-11.2351
osos	-11.2352
▁conhecimentos	-11.2353
▁senso	-11.2353
▁turco	-11.2354
?)	-11.2354
ucci	-11.2358
▁Estreou	-11.236
▁Epi	-11.236
▁Bandeirantes	-11.236
▁Hero	-11.2362
VA	-11.2362
▁music	-11.2364
▁Diogo	-11.2366
▁Esca	-11.2368
▁freguesias	-11.2369
▁Games	-11.2369
▁tronco	-11.2371
consequentemente	-11.2375
▁assegura	-11.2376
▁Kennedy	-11.2377
▁Seminário	-11.2377
▁tratados	-11.2379
▁salão	-11.238
ego	-11.2381
▁MA	-11.2382
▁declara	-11.2383
▁Cemitério	-11.2383
quino	-11.2384
▁fixo	-11.2384
▁Tomé	-11.239
▁informou	-11.239
▁árbitro	-11.239
▁vizinho	-11.239
▁Dol	-11.2391
fir	-11.2394
▁Back	-11.2394
▁Paralímpicos	-11.2396
▁precursor	-11.2396
▁Part	-11.2397
▁Fire	-11.2398
▁ligeiramente	-11.2399
▁Kara	-11.24
▁aventuras	-11.24
ž	-11.2403
▁relógio	-11.2403
stin	-11.2405
vita	-11.2405
ridae	-11.2407
▁SS	-11.2407
diano	-11.2408
▁válida	-11.2409
▁ocorrida	-11.2409
▁parecer	-11.2409
▁compõem	-11.2409
giu	-11.2412
▁ONU	-11.2413
fos	-11.2413
▁Afeganistão	-11.2416
▁director	-11.2416
lian	-11.2417
▁neve	-11.2421
▁NASA	-11.2422
▁projetada	-11.2423
▁prémio	-11.2423
gico	-11.2424
▁beira	-11.2425
itou	-11.2427
all	-11.2427
lê	-11.2429
ole	-11.243
▁colocando	-11.243
▁passos	-11.2432
mante	-11.2433
▁(),	-11.2435
▁NFL	-11.2437
▁descobertas	-11.2439
▁acompanhar	-11.2441
▁enfatiza	-11.2442
▁encena	-11.2443
▁compôs	-11.2444
general	-11.2445
RC	-11.2445
▁Mun	-11.2448
▁submarino	-11.2448
▁assinar	-11.245
-7	-11.245
▁Russa	-11.2451
cap	-11.2451
▁1963,	-11.2452
▁ricos	-11.2452
▁gi	-11.2452
cat	-11.2453
▁armadas	-11.2453
0)	-11.2453
▁That	-11.2453
▁abundante	-11.2455
▁marítima	-11.2455
▁diminuir	-11.2455
sing	-11.2456
loca	-11.2456
▁receita	-11.2457
orden	-11.2458
vela	-11.2459
▁1893	-11.2459
▁Der	-11.2459
▁versos	-11.2461
▁CB	-11.2461
▁complexidade	-11.2461
▁incentivo	-11.2461
▁opiniões	-11.2461
▁Barreto	-11.2462
▁administrador	-11.2464
Gra	-11.2465
show	-11.2465
wald	-11.2466
▁liberais	-11.2466
neu	-11.2466
dorf	-11.2467
▁costume	-11.2471
▁Vietnã	-11.2474
▁caverna	-11.2474
▁mudo	-11.248
▁vilão	-11.2482
-12	-11.2484
udi	-11.2484
reira	-11.2484
▁Ann	-11.2484
▁cão	-11.2487
▁elegeu	-11.2487
▁assegurar	-11.2488
▁básica	-11.2488
▁Java	-11.2489
▁Kon	-11.2491
cop	-11.2492
▁delimita	-11.2493
▁Dy	-11.2494
into	-11.2494
▁Av	-11.2496
▁destacado	-11.2497
ED	-11.25
▁1860	-11.25
▁isolado	-11.2501
▁simula	-11.2504
▁indicando	-11.2506
EA	-11.2507
▁cover	-11.2512
▁missa	-11.2512
▁sagrado	-11.2512
▁cin	-11.2516
▁circunstâncias	-11.2518
▁sabor	-11.2519
▁elaborado	-11.252
▁teor	-11.2521
▁latina	-11.2522
▁pudessem	-11.2523
▁impulso	-11.2526
▁romântico	-11.2526
▁restrições	-11.2526
▁janela	-11.2528
▁Água	-11.2531
▁observações	-11.2531
▁estabeleceram	-11.2531
▁sab	-11.2532
▁Executivo	-11.2533
▁domínios	-11.2533
rion	-11.2536
▁lava	-11.2537
▁Patrimônio	-11.2539
Wo	-11.2544
are	-11.2544
integra	-11.2545
▁instruções	-11.2546
▁François	-11.2546
▁realizando	-11.2547
▁comandado	-11.2548
▁identificada	-11.255
▁Mali	-11.2552
▁Fábio	-11.2553
▁complexos	-11.2553
RT	-11.2554
▁administrativo	-11.2556
▁restaurante	-11.2556
▁Old	-11.2558
uli	-11.2562
▁Cassi	-11.2563
ić	-11.2564
lem	-11.2566
Hi	-11.2566
▁Cul	-11.2566
▁atacou	-11.2566
lhão	-11.2569
▁traje	-11.2569
▁Prof	-11.2571
lit	-11.2572
▁Matriz	-11.2573
▁desaparece	-11.2575
ert	-11.2577
▁1894	-11.2577
hor	-11.2578
vide	-11.2578
▁ambientais	-11.2579
▁dramática	-11.2579
▁Hell	-11.2579
▁corredor	-11.2579
ntin	-11.258
▁Ant	-11.2581
▁Sports	-11.2585
▁Regina	-11.2589
▁fotografias	-11.259
▁lua	-11.2602
▁foguete	-11.2602
▁custa	-11.2603
gata	-11.2604
ule	-11.2604
eve	-11.2605
▁necessariamente	-11.2605
▁Magno	-11.2607
▁Barry	-11.2607
▁porção	-11.2609
PD	-11.2609
▁01	-11.261
▁Florença	-11.2612
▁rebaixado	-11.2612
▁jornalistas	-11.2615
cc	-11.2615
▁combates	-11.2616
elle	-11.2616
▁presa	-11.2616
▁Law	-11.2616
▁bebê	-11.2618
▁compositora	-11.2619
▁diretora	-11.2621
ências	-11.2623
▁mundialmente	-11.2623
▁Ober	-11.2624
▁77	-11.2625
▁desce	-11.2627
▁(13	-11.2627
▁1993.	-11.2629
▁visuais	-11.2632
▁pátio	-11.2632
▁existiam	-11.2632
teo	-11.2633
▁pertencentes	-11.2634
▁aposentadoria	-11.2634
▁Elas	-11.2639
_5	-11.264
Ad	-11.2641
plex	-11.2641
▁contemporâneos	-11.2641
▁gigantes	-11.2643
▁levam	-11.2643
ör	-11.2644
▁SA	-11.2645
▁ferido	-11.2646
▁Sou	-11.2648
▁falou	-11.2649
ttle	-11.265
IP	-11.2651
▁mercados	-11.2651
▁oxigênio	-11.2651
▁Carol	-11.2652
▁típica	-11.2654
▁regimento	-11.2654
hin	-11.2656
Por	-11.2656
▁Press	-11.2659
quil	-11.2662
▁Mix	-11.2663
▁Hei	-11.2665
bje	-11.2669
▁Guiana	-11.2669
▁Abreu	-11.2672
▁Fair	-11.2672
Ge	-11.2673
▁viola	-11.2673
ior	-11.2675
▁Dos	-11.2676
ctivo	-11.2678
▁chefia	-11.268
▁estatal	-11.2684
governador	-11.2685
llow	-11.2685
Lisboa	-11.2687
▁fiel	-11.2688
▁Comercial	-11.2691
▁automóveis	-11.2691
▁cheio	-11.2691
▁vivendo	-11.2692
▁rodas	-11.2694
tivamente	-11.2695
▁Vladimir	-11.2698
grada	-11.2698
▁gerando	-11.2698
DS	-11.2698
▁partilha	-11.2698
▁dr	-11.2702
▁confronta	-11.2705
▁segmentos	-11.271
▁110	-11.271
▁certeza	-11.2711
MD	-11.2712
▁Regimento	-11.2712
▁Andy	-11.2712
quant	-11.2713
▁Alb	-11.2713
▁Amaral	-11.2715
▁Caribe	-11.2715
▁360	-11.2716
▁Express	-11.2716
▁cerveja	-11.2718
▁romena	-11.2718
▁Benfica	-11.2719
▁Mr	-11.2721
ø	-11.2721
▁cari	-11.2723
▁(11	-11.2725
▁Clubes	-11.2726
▁semanal	-11.2727
rov	-11.2727
ibilidade	-11.2728
▁Faro	-11.2729
▁mol	-11.273
CP	-11.2731
▁metro	-11.2732
▁montagem	-11.2732
▁Todo	-11.2733
▁teto	-11.2733
▁assemelha	-11.2735
sub	-11.2735
ticos	-11.2736
rmi	-11.2736
▁95	-11.2737
▁Fabaceae	-11.2738
▁ascendência	-11.2738
▁sobrevivência	-11.2738
Vo	-11.274
▁procurou	-11.2745
deus	-11.2746
mana	-11.2751
▁imagina	-11.2752
▁multidão	-11.2753
▁tomando	-11.2753
▁recon	-11.2754
nação	-11.2754
stância	-11.2756
tuba	-11.2756
tei	-11.2756
▁700	-11.2758
há	-11.2759
constru	-11.276
▁teclado	-11.2761
▁financeiras	-11.2763
▁especifica	-11.2763
grad	-11.2764
prima	-11.2765
▁Edi	-11.2768
hé	-11.2769
="	-11.277
ntada	-11.277
pli	-11.2771
bad	-11.2771
▁Havia	-11.2771
▁mineiro	-11.2771
▁utilizou	-11.2778
▁investigações	-11.2781
arte	-11.2781
▁concluir	-11.2781
▁mag	-11.2785
▁Agostinho	-11.2785
▁Catalunha	-11.2785
▁controlo	-11.2786
▁roupa	-11.2786
▁eficiência	-11.2787
▁eficaz	-11.2789
▁hidrogênio	-11.2792
lito	-11.2792
cidas	-11.2793
▁marciais	-11.2794
▁casca	-11.2794
▁Boca	-11.2795
▁gravadas	-11.2797
▁Key	-11.2798
Ródano	-11.2798
▁entrando	-11.2799
guar	-11.2799
▁corta	-11.2799
Tri	-11.28
▁abandona	-11.28
▁intra	-11.2801
▁Indiana	-11.2801
▁racional	-11.2802
▁vistas	-11.2803
▁Sex	-11.2804
▁alimenta	-11.2805
▁adulta	-11.2805
kai	-11.2807
▁Mãe	-11.2808
pú	-11.2808
▁greve	-11.281
▁Ec	-11.2811
▁preferência	-11.2812
RO	-11.2812
▁permaneceram	-11.2813
▁71	-11.2815
▁argentina	-11.2818
kha	-11.2819
▁falantes	-11.282
▁1958,	-11.2821
▁Of	-11.2821
▁precipitação	-11.2822
▁promove	-11.2822
Sal	-11.2822
▁americanas	-11.2825
▁Singles	-11.2828
▁Who	-11.2831
▁compor	-11.2833
visor	-11.2833
▁embarcações	-11.2835
▁protesto	-11.2837
▁Brito	-11.2837
▁modernas	-11.2838
▁fósseis	-11.2839
CT	-11.2839
▁Spa	-11.284
▁pri	-11.284
▁USS	-11.284
▁Gian	-11.2841
▁Beck	-11.2845
▁1961,	-11.2845
▁incorporado	-11.2846
▁Christopher	-11.2847
▁Jam	-11.2847
▁proeminente	-11.2848
▁Liberal	-11.2848
niano	-11.285
▁estável	-11.2851
▁cantada	-11.2851
▁chapa	-11.2852
▁dobra	-11.2852
ichi	-11.2853
puseram	-11.2854
▁publicamente	-11.2856
▁científicos	-11.2857
▁Jordan	-11.2859
corria	-11.2859
▁Jac	-11.286
▁Josef	-11.2861
▁Gilberto	-11.2862
▁frequente	-11.2862
▁frequentes	-11.2863
ß	-11.2866
Love	-11.2866
▁Hamburgo	-11.2866
▁Brad	-11.2869
▁Brook	-11.2869
▁́	-11.2871
etta	-11.2871
▁caminhos	-11.2872
▁rebelião	-11.2872
▁tênis	-11.2873
▁psicologia	-11.2873
▁Chan	-11.2873
TE	-11.2874
▁virou	-11.2874
▁proporção	-11.2875
▁diretores	-11.2875
▁descon	-11.2876
rata	-11.2879
▁sueca	-11.2881
▁69	-11.2882
▁Classe	-11.2882
▁dívida	-11.2883
▁Fica	-11.2883
▁ídolo	-11.2886
▁afirmam	-11.2887
remos	-11.2888
fei	-11.2888
▁Wu	-11.2888
▁mármore	-11.2893
▁suspensão	-11.2893
▁compostas	-11.2893
▁XXI	-11.2893
tamento	-11.2894
▁matando	-11.2895
▁feridos	-11.2896
▁Tinha	-11.2898
▁costuma	-11.2901
▁magia	-11.2902
▁eliminação	-11.2904
▁Deve	-11.2906
▁renovação	-11.2906
▁“"	-11.2908
▁Julie	-11.2911
▁Raimundo	-11.2913
▁postura	-11.2914
▁parcial	-11.2915
nning	-11.2916
gla	-11.2919
▁char	-11.2921
▁ala	-11.2921
rgi	-11.2923
▁ergue	-11.2923
mol	-11.2923
▁ensaio	-11.2924
▁provenientes	-11.2924
▁soviéticos	-11.2926
▁tendem	-11.2926
▁datas	-11.2929
gger	-11.2929
▁Ira	-11.293
ward	-11.2933
cisão	-11.2933
▁concreto	-11.2934
▁ideologia	-11.2934
missão	-11.2934
▁cava	-11.2935
▁aldeias	-11.2936
▁gerencia	-11.2937
▁civilização	-11.294
▁furacão	-11.294
▁Arábia	-11.294
▁dividir	-11.294
▁legais	-11.2941
▁trens	-11.2941
ecia	-11.2945
▁Domingo	-11.2945
▁contínuo	-11.2947
▁outono	-11.2948
▁Moraes	-11.2952
▁primitiva	-11.2954
▁mac	-11.2957
▁rotação	-11.2959
▁Lord	-11.2959
▁Associa	-11.296
▁Petr	-11.296
▁(9	-11.2961
cea	-11.2963
▁By	-11.2965
▁Fro	-11.2965
▁estabilidade	-11.2966
Orchidaceae	-11.2968
▁Kin	-11.2969
▁gua	-11.2969
mita	-11.2971
lava	-11.2971
enha	-11.2972
down	-11.2972
▁Vasconcelos	-11.2975
icas	-11.2975
▁lançadas	-11.2978
phe	-11.298
ı	-11.2981
▁Bart	-11.2983
toma	-11.2984
▁performances	-11.2986
▁proteína	-11.2987
▁lutadores	-11.2987
▁liberado	-11.2988
leto	-11.299
▁Sk	-11.2992
ixe	-11.2992
▁funcionário	-11.2994
▁Superman	-11.2994
▁Reserva	-11.2995
▁Espacial	-11.2995
▁falada	-11.2995
▁Canto	-11.2995
▁McC	-11.2995
▁78	-11.2996
villa	-11.2996
▁igualdade	-11.2996
▁Union	-11.2997
▁excesso	-11.2998
Je	-11.3
▁Capi	-11.3
oro	-11.3001
▁acadêmico	-11.3001
▁praias	-11.3002
▁Ocidente	-11.3002
▁conf	-11.3003
▁efetivo	-11.3003
▁iniciando	-11.3004
eh	-11.3004
▁balada	-11.3009
▁Maomé	-11.3009
▁disputadas	-11.3009
▁conseguem	-11.3011
▁Arg	-11.3018
▁Altos	-11.3018
▁fluido	-11.302
▁contesta	-11.3025
hop	-11.3026
▁ossos	-11.3028
cult	-11.3028
▁adulto	-11.3029
▁Franklin	-11.303
ítico	-11.303
▁cratera	-11.303
mano	-11.303
▁adota	-11.303
▁únicos	-11.3035
▁73	-11.3035
ologista	-11.3036
▁vegetais	-11.3039
graduação	-11.3041
tig	-11.3041
▁templos	-11.3043
ório	-11.3043
л	-11.3043
▁UK	-11.3044
▁Tin	-11.3044
▁crenças	-11.3044
▁Direitos	-11.3045
▁cidadão	-11.3047
▁urbanos	-11.3047
▁Gol	-11.3047
▁andares	-11.3047
▁parentes	-11.3047
élia	-11.3048
▁agenda	-11.3048
ográfico	-11.3048
ON	-11.3049
▁Pia	-11.3049
sus	-11.3049
singles	-11.3049
▁vizinha	-11.3049
▁coleópteros	-11.305
pad	-11.305
vice	-11.305
▁Astro	-11.305
▁1948,	-11.3052
▁empreendimento	-11.3057
▁romântica	-11.3057
▁crônica	-11.3057
▁fin	-11.3061
▁metais	-11.3062
agi	-11.3064
▁Leopoldo	-11.3065
▁Beatles	-11.3065
▁Palm	-11.3066
▁privadas	-11.3069
▁voivodia	-11.3071
▁diretoria	-11.3071
clam	-11.3071
▁modificações	-11.3072
nula	-11.3073
▁surgir	-11.3074
▁substituto	-11.3076
▁eliminar	-11.3078
nado	-11.3078
NE	-11.3081
▁Sche	-11.3082
▁Armadas	-11.3083
▁israelense	-11.3085
ast	-11.3086
sola	-11.3087
▁Dé	-11.3087
anha	-11.3088
▁soube	-11.3089
view	-11.3091
▁recorrente	-11.3092
▁encosta	-11.3093
rito	-11.3093
▁Camargo	-11.3093
▁mecanismos	-11.3095
TO	-11.3095
▁superar	-11.3097
▁destina	-11.3097
▁LINEAR	-11.3098
▁proibido	-11.3098
▁escapa	-11.3099
▁prega	-11.3099
▁observada	-11.31
▁Fundo	-11.3102
quinho	-11.3103
▁concordou	-11.3105
▁permitido	-11.3105
▁Hard	-11.3107
▁Herschel	-11.3112
▁Racing	-11.3112
▁colo	-11.3114
▁boxe	-11.3115
guerra	-11.3115
▁madrugada	-11.3119
▁Bairro	-11.312
▁associadas	-11.3122
▁Gas	-11.3122
▁apelo	-11.3126
▁download	-11.3126
▁comitê	-11.3127
▁seguem	-11.3127
▁State	-11.3127
▁libras	-11.3127
▁átomos	-11.3129
▁Latino	-11.3129
▁Lé	-11.3129
▁Hit	-11.313
▁vozes	-11.3131
ppe	-11.3133
▁sensação	-11.3133
nin	-11.3137
▁armazenamento	-11.3137
▁abandonada	-11.3137
▁aproveita	-11.3138
▁ministra	-11.3138
stia	-11.3138
▁localizados	-11.314
▁1944,	-11.3141
mei	-11.3141
trá	-11.3144
nna	-11.3149
▁vestígios	-11.3153
cidi	-11.3154
▁Nápoles	-11.3154
▁roubo	-11.3155
cross	-11.3159
▁desempenhou	-11.3159
▁Ibérica	-11.3161
▁Literatura	-11.3161
▁Armênia	-11.3161
▁favorece	-11.3161
▁Franz	-11.3162
▁Somente	-11.3164
trop	-11.3166
gara	-11.3166
▁planejado	-11.317
rqui	-11.3171
▁Kal	-11.3174
▁difíceis	-11.3175
cole	-11.3175
▁Bern	-11.3175
▁falado	-11.3176
▁Geraldo	-11.3176
▁Songs	-11.3179
▁peri	-11.3182
▁comandada	-11.3183
▁grade	-11.3185
fur	-11.3185
▁preparar	-11.3187
▁Parti	-11.3188
▁Premier	-11.3189
▁Prince	-11.3191
▁Pie	-11.3193
▁rein	-11.3197
▁Moon	-11.3198
▁voltaram	-11.3199
▁confrontos	-11.3202
▁fabricante	-11.3202
-11	-11.3203
▁160	-11.3203
▁Montreal	-11.3203
▁budista	-11.3203
▁Ak	-11.3204
enti	-11.3206
▁participado	-11.3211
▁inspira	-11.3212
▁sé	-11.3213
▁facilitar	-11.3213
▁cavaleiro	-11.3214
shin	-11.3214
▁Twitter	-11.3217
▁abastecimento	-11.3217
gida	-11.3217
RIA	-11.3218
lhado	-11.322
Mon	-11.3222
▁Largo	-11.3225
▁treina	-11.3228
▁Figueiredo	-11.3231
▁orgânica	-11.3231
▁sofrido	-11.3231
visi	-11.3231
▁promotor	-11.3233
▁Inácio	-11.3234
▁concorrentes	-11.3237
▁1864	-11.3238
▁denúncia	-11.3238
▁Genebra	-11.3239
▁Let	-11.3239
UF	-11.3244
▁Nascimento	-11.3246
nésia	-11.3249
▁Africano	-11.3249
▁Constru	-11.325
▁conten	-11.3252
▁assembleia	-11.3252
▁mariposa	-11.3252
▁Newton	-11.3253
dinha	-11.3253
▁variante	-11.3253
▁divididas	-11.3253
▁Nome	-11.3254
▁Jerry	-11.3254
sistência	-11.3254
light	-11.3257
▁pala	-11.3257
▁1989.	-11.3258
▁belo	-11.3258
▁Morgan	-11.3258
MC	-11.3261
gma	-11.3262
bet	-11.3263
▁restaurantes	-11.3264
▁ofício	-11.3264
▁Lincoln	-11.3266
▁Paróquia	-11.3266
▁colaborou	-11.3266
▁comunistas	-11.3267
ione	-11.3268
▁pistas	-11.3269
▁falecer	-11.3273
▁toque	-11.3274
ecimento	-11.3276
▁Ian	-11.3279
▁1887	-11.3279
▁agremiação	-11.328
▁Bush	-11.3281
▁treinar	-11.3281
▁Dragon	-11.3285
▁bônus	-11.3287
▁ganho	-11.3287
cast	-11.3289
▁pouso	-11.3289
▁decidido	-11.3289
▁avançada	-11.329
box	-11.329
▁bits	-11.3291
nata	-11.3293
▁Prote	-11.3294
▁lazer	-11.3294
▁marketing	-11.3294
▁dezesseis	-11.3294
▁aprendizagem	-11.3295
gueiro	-11.3295
▁Pré	-11.3296
▁lote	-11.3297
▁Marx	-11.3298
▁Edgar	-11.3301
ime	-11.3302
evo	-11.3302
▁Lil	-11.3303
duz	-11.3303
▁Bet	-11.3305
▁carrega	-11.3306
▁Luci	-11.3306
▁mel	-11.3307
».	-11.3307
▁Goiânia	-11.3308
▁pianista	-11.3308
▁simplifica	-11.3308
▁fragmentos	-11.3309
▁Stadium	-11.3309
▁assina	-11.3309
eco	-11.331
pala	-11.331
▁favoráveis	-11.3311
▁salário	-11.3311
▁Davi	-11.3312
▁coreano	-11.3316
aya	-11.3317
▁desperta	-11.3319
neta	-11.3321
▁bri	-11.3322
imp	-11.3323
ódromo	-11.3324
▁propõe	-11.3325
▁Diz	-11.3325
▁lobo	-11.3325
▁reside	-11.3327
-8	-11.3327
▁lida	-11.3328
▁legislativo	-11.333
▁tesouro	-11.333
▁Tavares	-11.333
▁minoria	-11.333
▁Trabalhadores	-11.3331
▁pur	-11.3331
Cu	-11.3333
LC	-11.3333
▁DE	-11.3334
cari	-11.3334
▁húngaro	-11.3335
▁Rho	-11.3335
nom	-11.3335
come	-11.3336
▁Luxemburgo	-11.3337
nciou	-11.3339
▁Philip	-11.334
tórias	-11.3341
▁post	-11.3341
▁oral	-11.3342
ien	-11.3342
▁convertido	-11.3344
▁Fil	-11.335
▁Magazine	-11.3351
▁lesões	-11.3351
▁fru	-11.3351
ee	-11.3352
teria	-11.3352
▁dançar	-11.3354
poca	-11.3356
▁Evangelho	-11.3358
▁fugiu	-11.3359
▁Massa	-11.3361
▁Milton	-11.3365
▁culinária	-11.3365
▁gravidade	-11.3365
▁efetivamente	-11.3366
cera	-11.3371
▁Chaves	-11.3377
▁Broadway	-11.3379
▁expandir	-11.3379
▁Burn	-11.338
mara	-11.3382
▁reivindica	-11.3383
eng	-11.3384
▁coberto	-11.3385
▁promovida	-11.3387
▁dezoito	-11.3387
lato	-11.3387
▁Ig	-11.3389
▁Galiza	-11.3389
▁reconheceu	-11.3391
▁monta	-11.3392
ject	-11.3392
▁Kor	-11.3393
▁Todavia	-11.3395
▁plana	-11.3396
▁Plu	-11.3398
▁sombra	-11.34
▁Liber	-11.34
hara	-11.34
▁Arquidiocese	-11.3401
▁Michigan	-11.3408
▁adversários	-11.3409
▁envia	-11.3411
▁Kha	-11.3411
UR	-11.3415
▁1986.	-11.3415
▁Toledo	-11.3415
▁etnia	-11.3416
▁Colorado	-11.3417
▁perfeito	-11.3417
▁memórias	-11.3418
▁heróis	-11.3418
▁apareceram	-11.3419
tol	-11.3419
▁núcleos	-11.342
▁gay	-11.3422
▁Malásia	-11.3423
▁ocupando	-11.3423
gate	-11.3425
▁modalidades	-11.3426
▁internos	-11.3426
▁chamando	-11.3426
▁1850	-11.3428
▁Tho	-11.3428
▁Martinho	-11.3429
▁abs	-11.3429
▁delegação	-11.3431
▁operado	-11.3431
right	-11.3434
▁Panamá	-11.3437
ológica	-11.3438
tric	-11.3441
CI	-11.3443
Condado	-11.3443
vra	-11.3443
▁governante	-11.3444
▁84	-11.3447
camp	-11.3448
▁empregados	-11.3449
▁2:	-11.3451
▁analisa	-11.3452
raça	-11.3454
▁imposto	-11.3454
▁demitido	-11.3455
gura	-11.3455
grande	-11.3455
▁rivais	-11.3458
▁130	-11.3459
▁Oliver	-11.346
▁atentado	-11.346
▁desenhada	-11.3462
▁bloqueio	-11.3465
▁triunfo	-11.3465
▁perceber	-11.3466
▁percepção	-11.3466
▁violão	-11.3467
▁minerais	-11.3468
▁atrair	-11.3469
Men	-11.3469
span	-11.347
▁choque	-11.3471
#	-11.3472
▁explicou	-11.3473
nega	-11.3473
▁Pale	-11.3474
adora	-11.3474
▁Fel	-11.3474
▁Lí	-11.3476
▁leito	-11.3476
tração	-11.3477
lee	-11.3477
▁avó	-11.3478
▁Story	-11.3479
▁Fase	-11.3479
▁correspondência	-11.348
▁pescoço	-11.348
▁Pet	-11.3482
iller	-11.3483
dário	-11.3483
▁ideais	-11.3487
▁contempla	-11.3487
nard	-11.3487
ntou	-11.3488
nascida	-11.3489
▁inferiores	-11.349
▁regulamento	-11.3491
tten	-11.3492
▁Schu	-11.3494
▁band	-11.3494
▁banha	-11.3495
▁escada	-11.3496
▁Convento	-11.3496
▁parlamentares	-11.3498
lago	-11.3499
▁marcados	-11.35
cino	-11.3501
▁resgate	-11.3502
▁Rosário	-11.3503
▁complexa	-11.3505
▁fria	-11.3507
gula	-11.3507
▁exporta	-11.3508
▁estratégica	-11.3509
▁Bryan	-11.3509
▁protetor	-11.351
▁imigração	-11.351
▁aquelas	-11.3511
Sta	-11.3512
TS	-11.3512
▁republicano	-11.3512
▁Kid	-11.3513
▁biológica	-11.3513
▁suave	-11.3514
jado	-11.3515
▁característico	-11.3516
▁suc	-11.3516
▁realizaram	-11.3516
▁j	-11.3516
▁milhas	-11.3517
▁bactérias	-11.3517
CD	-11.3519
▁lento	-11.352
família	-11.352
▁aceitação	-11.3527
▁proto	-11.3529
▁contratou	-11.3529
▁deverá	-11.3529
reta	-11.3529
▁removido	-11.353
▁anuais	-11.3531
▁namorado	-11.3532
▁pesado	-11.3533
vie	-11.3534
▁indicar	-11.3535
▁mede	-11.3537
▁frequentou	-11.3537
▁painéis	-11.3537
▁estuda	-11.354
▁Hawk	-11.354
▁secundária	-11.3542
▁chegado	-11.3543
fí	-11.3544
▁tanta	-11.3544
5.000	-11.3548
▁contemporâneo	-11.3549
▁moto	-11.3551
▁namorada	-11.3552
▁planalto	-11.3552
▁barcos	-11.3552
▁carvão	-11.3553
neto	-11.3558
▁convida	-11.3559
▁Wayne	-11.3559
▁Cinco	-11.356
Casa	-11.3564
▁Alfa	-11.3564
ones	-11.3565
iner	-11.3565
Ed	-11.3566
cz	-11.3566
▁Harvard	-11.3566
▁entendimento	-11.3566
▁mensal	-11.3567
▁nucleares	-11.3568
▁Cine	-11.3573
▁Aberto	-11.3573
▁capitais	-11.3574
▁Estocolmo	-11.3574
hou	-11.3575
▁Sand	-11.3576
▁libera	-11.3578
▁FI	-11.3584
▁funcional	-11.3585
▁separadas	-11.3585
▁voa	-11.3586
▁1:	-11.3586
Nor	-11.3587
▁Bai	-11.3587
landes	-11.3587
UC	-11.3588
▁Isaac	-11.3589
▁influente	-11.3589
▁promoveu	-11.3589
▁emocional	-11.359
▁McG	-11.3593
▁molecular	-11.3594
▁iTunes	-11.3596
▁armado	-11.3597
gráfico	-11.3598
▁irregular	-11.3601
▁cartão	-11.3602
mental	-11.3602
ologicamente	-11.3602
▁possuíam	-11.3607
IM	-11.3609
fé	-11.3609
▁Houston	-11.361
▁Otomano	-11.361
▁Orlando	-11.361
vu	-11.361
▁administrado	-11.3615
▁doméstica	-11.3617
▁incentiva	-11.3619
Franco	-11.3623
▁verso	-11.3625
DC	-11.3626
▁aviação	-11.3627
▁Passou	-11.3628
coreano	-11.3628
▁Arco	-11.3629
▁plena	-11.3632
▁interrompe	-11.3632
▁defendia	-11.3632
pou	-11.3633
▁atrações	-11.3633
▁Independente	-11.3634
▁1939,	-11.3634
▁respectivos	-11.3636
quê	-11.3637
▁Tupi	-11.3638
▁Flávio	-11.3639
▁metrô	-11.364
▁tática	-11.3641
▁sigla	-11.3641
pita	-11.3643
▁medicamentos	-11.3644
paga	-11.3645
▁derrotando	-11.3651
▁apoia	-11.3651
▁certamente	-11.3652
▁sou	-11.3653
▁Croácia	-11.3654
▁ocasiona	-11.3656
credit	-11.3658
redo	-11.3658
▁filiado	-11.3659
▁Lula	-11.3661
▁regula	-11.3661
▁Inglês	-11.3661
▁Disco	-11.3662
▁válidos	-11.3664
▁Blanc	-11.3665
▁batizado	-11.3667
▁renunciou	-11.3669
▁Carter	-11.3673
mida	-11.3674
xu	-11.3675
▁conduzir	-11.3676
▁geometria	-11.3676
▁socio	-11.3677
▁afirmar	-11.3678
▁Juiz	-11.3682
▁emitido	-11.3684
▁econômicos	-11.3685
▁Fei	-11.3687
IA	-11.3689
▁1943,	-11.3689
▁conduta	-11.3691
▁consigo	-11.3691
amba	-11.3691
▁Arts	-11.3692
▁pecado	-11.3694
▁evita	-11.3697
▁protestantes	-11.3698
▁fotógrafo	-11.3698
▁soberania	-11.3698
▁foz	-11.3699
ificada	-11.37
▁perfeita	-11.37
▁desenhado	-11.3702
▁gases	-11.3702
▁1884	-11.3704
▁adolescência	-11.3705
▁imper	-11.3706
ML	-11.3707
jun	-11.371
izações	-11.3711
▁Water	-11.3711
▁Infantaria	-11.3713
▁agraciado	-11.3713
▁mecânico	-11.3713
▁Pay	-11.3713
av	-11.3714
▁Giro	-11.3714
titui	-11.3715
▁Mah	-11.3717
▁tupi	-11.3718
rate	-11.3719
▁baseadas	-11.3721
bala	-11.3721
▁Baby	-11.3727
н	-11.3727
▁absoluto	-11.3727
▁MP	-11.3728
▁Stefan	-11.3728
▁correr	-11.3729
▁Nogueira	-11.373
▁Vel	-11.373
-14	-11.3731
▁consistente	-11.3736
▁Das	-11.3736
▁tanques	-11.3737
▁falso	-11.3737
▁internas	-11.3737
▁SE	-11.3738
▁Yama	-11.374
▁Stein	-11.374
▁Sena	-11.3743
▁Harris	-11.3743
SL	-11.3743
▁Carneiro	-11.3743
▁rocha	-11.3744
▁vendendo	-11.3744
▁aéreas	-11.3745
qü	-11.3745
▁NBC	-11.3745
▁servidor	-11.3745
avam	-11.3746
▁Gale	-11.3747
▁Alemã	-11.3749
▁intensifica	-11.375
long	-11.3751
▁voltando	-11.3751
mate	-11.3751
iaceae	-11.3753
▁sociedades	-11.3754
▁comemoração	-11.3756
tú	-11.3756
▁1878	-11.3756
▁prof	-11.3757
▁demonstrou	-11.3757
▁hierarquia	-11.3757
tificação	-11.3757
▁decisiva	-11.3757
▁pessoalmente	-11.376
kes	-11.3761
▁Matthew	-11.3764
dí	-11.3765
▁Sc	-11.3768
▁responder	-11.3769
▁protegido	-11.3772
▁Universitário	-11.3772
▁defensores	-11.3773
oi	-11.3774
▁desvio	-11.3774
▁vegetal	-11.3778
▁fazendeiro	-11.3779
▁orgânico	-11.3779
▁chu	-11.3785
ا	-11.3787
▁cúpula	-11.3787
▁avaliar	-11.3787
/10	-11.3788
▁Lind	-11.3799
▁adaptada	-11.38
eth	-11.38
tilha	-11.38
▁Líbia	-11.3802
▁navegador	-11.3809
▁armada	-11.3809
uve	-11.3809
▁Monta	-11.381
▁férias	-11.381
▁juvenil	-11.381
▁relevante	-11.3812
▁libertado	-11.3813
▁Data	-11.3813
campo	-11.3815
▁cargas	-11.3816
▁sérvio	-11.3816
▁Just	-11.3817
série	-11.3817
tier	-11.3818
▁virada	-11.3818
▁transportado	-11.382
ür	-11.382
mine	-11.3821
peli	-11.3822
Ko	-11.3823
hoje	-11.3825
bras	-11.3825
▁derrotas	-11.3826
▁exerce	-11.3826
tie	-11.3828
▁passeio	-11.3828
▁1959,	-11.3828
▁considerava	-11.383
▁caridade	-11.383
▁economista	-11.3831
▁Folha	-11.3832
▁fiéis	-11.3832
▁análises	-11.3832
▁massas	-11.3833
normal	-11.3833
ólica	-11.3834
▁separada	-11.3835
▁Emmy	-11.3836
▁Muito	-11.384
arma	-11.3841
▁Dai	-11.3841
▁Reich	-11.3842
▁deslocamento	-11.3846
▁fenômenos	-11.3846
termina	-11.3847
Des	-11.3848
▁comunicações	-11.3849
▁pesada	-11.385
media	-11.3852
▁Florianópolis	-11.3854
▁seminário	-11.3855
band	-11.3857
▁sugerem	-11.3858
▁criticou	-11.3861
▁mistério	-11.3861
▁Coutinho	-11.3861
▁desenvolveram	-11.3867
▁britânicas	-11.3868
▁Hau	-11.3869
▁Cabe	-11.387
▁investigar	-11.3872
▁minuto	-11.3873
▁Hé	-11.3873
▁Moderna	-11.3873
▁cortes	-11.3874
▁Vic	-11.3875
dutor	-11.3876
▁legenda	-11.3876
▁congresso	-11.3877
▁disputas	-11.3877
▁tentam	-11.3878
▁Thr	-11.3879
rig	-11.388
300	-11.3881
▁vs	-11.3881
▁Comuna	-11.3882
▁Técnica	-11.3884
▁queriam	-11.3884
▁bizantinos	-11.3885
flor	-11.3885
▁documenta	-11.3887
▁afastado	-11.3888
IG	-11.389
American	-11.3891
▁contratação	-11.3891
▁modificado	-11.3892
.500	-11.3896
▁produzem	-11.3897
cessa	-11.3897
rando	-11.3897
▁Linux	-11.3898
▁helicóptero	-11.3899
▁99	-11.39
▁SC	-11.3903
guin	-11.3904
▁leitores	-11.3904
▁Alca	-11.3905
▁discussões	-11.3906
▁robô	-11.3906
▁Alagoas	-11.3906
ket	-11.3907
▁examina	-11.3908
▁divina	-11.3908
▁Grant	-11.3909
▁retro	-11.3913
▁recomenda	-11.3913
▁linhagem	-11.3913
▁Valentin	-11.3913
▁bizantina	-11.3914
▁Turismo	-11.3914
feita	-11.3914
▁Boys	-11.3915
ores	-11.3916
▁mudado	-11.3917
▁demonstrar	-11.3918
▁inscrições	-11.3918
patia	-11.3919
▁Bárbara	-11.3921
▁cerebral	-11.3921
▁Bem	-11.3922
▁previsão	-11.3922
órica	-11.3923
▁Buck	-11.3927
▁criticado	-11.3929
▁atletismo	-11.3929
▁Batman	-11.3929
▁convencional	-11.3929
▁optou	-11.393
ivos	-11.3932
bara	-11.3932
▁apresentaram	-11.3934
▁acabam	-11.3934
▁melhoria	-11.3935
▁hospeda	-11.3936
▁representações	-11.3936
▁califa	-11.3937
▁Acre	-11.3938
▁1942,	-11.3938
▁Teoria	-11.3941
▁catálogo	-11.3944
▁grama	-11.3947
▁sobreviver	-11.395
▁genes	-11.395
▁embarca	-11.3951
▁avaliações	-11.3951
▁temporariamente	-11.3951
▁Naval	-11.3954
▁sites	-11.3954
imi	-11.3956
▁liderados	-11.3957
▁Cala	-11.3957
▁propriamente	-11.3959
▁falecimento	-11.3959
▁Taiwan	-11.3959
▁ajudando	-11.3959
cionou	-11.396
▁alemãs	-11.3963
▁Manda	-11.3964
▁reinos	-11.3966
▁Kel	-11.3967
CS	-11.3968
▁1954,	-11.3968
▁mandado	-11.3968
▁Soul	-11.3969
lização	-11.3969
xá	-11.3969
▁Jogo	-11.3969
mma	-11.397
▁turcos	-11.3971
▁empregada	-11.3972
▁Abel	-11.3973
▁periódico	-11.3973
▁aglomerado	-11.3973
▁prédios	-11.3973
ology	-11.3975
▁rouba	-11.3976
400	-11.398
▁traseira	-11.3982
▁1941,	-11.3984
lidae	-11.3985
▁ampliação	-11.3986
▁químicos	-11.3987
▁adoção	-11.3988
gênio	-11.3988
▁pedindo	-11.3989
▁Auvérnia	-11.3989
▁Corrêa	-11.3989
ntu	-11.399
▁Congregação	-11.3997
▁diplomata	-11.3997
▁Cooper	-11.3997
crito	-11.4001
cilia	-11.4003
▁88	-11.4003
▁vingança	-11.4004
FI	-11.4005
▁agências	-11.4005
▁Teo	-11.4005
laria	-11.4006
▁escritórios	-11.401
▁melhora	-11.4011
▁famosas	-11.4011
ï	-11.4012
▁Freire	-11.4013
▁Baixo	-11.4014
▁mandatos	-11.4015
▁estabelecendo	-11.4016
▁Mit	-11.4017
▁provar	-11.4017
MI	-11.4019
▁arranjo	-11.4019
▁Mai	-11.4019
douro	-11.402
▁gui	-11.4022
▁totalizando	-11.4023
▁acreditar	-11.4024
▁aliada	-11.4025
▁vibra	-11.4027
▁reforço	-11.4027
▁turística	-11.4027
▁apresentados	-11.4031
▁Bela	-11.4031
▁comerciantes	-11.4031
▁Matemática	-11.4035
▁Naquele	-11.4035
▁Bir	-11.4041
▁1500	-11.4041
▁talentos	-11.4042
▁engloba	-11.4042
▁PMDB	-11.4045
▁perdas	-11.4045
▁mencionada	-11.4046
contra	-11.4049
fel	-11.4049
▁escândalo	-11.405
▁linguística	-11.405
▁Bomb	-11.4055
▁atesta	-11.4055
▁Jonathan	-11.4057
▁Rab	-11.4057
▁explicação	-11.4058
▁manipula	-11.4058
▁devasta	-11.406
rib	-11.4062
▁reclama	-11.4063
▁classificadas	-11.4064
▁inédito	-11.4065
▁estranha	-11.4065
▁animada	-11.4066
uan	-11.4066
▁variados	-11.4067
▁trigo	-11.4068
owski	-11.4071
▁nazista	-11.4074
▁influentes	-11.4075
▁min	-11.4077
wen	-11.4078
IV	-11.4081
DI	-11.4081
tria	-11.4081
▁pau	-11.4081
vina	-11.4082
torial	-11.4083
try	-11.4088
▁materno	-11.4088
..."	-11.409
▁campus	-11.4092
yama	-11.4093
▁correto	-11.4095
Au	-11.4095
▁celebração	-11.4095
▁Academy	-11.4096
▁coleções	-11.4097
duque	-11.4098
cende	-11.4098
▁Inicia	-11.4099
▁nervoso	-11.4099
▁cro	-11.41
▁ministros	-11.4101
▁Krist	-11.4101
▁retira	-11.4101
▁Sig	-11.4102
▁preservar	-11.4103
▁Grão	-11.4109
▁trazido	-11.411
pão	-11.411
▁polegadas	-11.4111
▁asiático	-11.4112
▁manual	-11.4113
▁CP	-11.4114
▁referencia	-11.4116
▁98	-11.4117
▁celeste	-11.4119
illy	-11.4119
▁ética	-11.412
▁ensinamentos	-11.412
▁02	-11.412
▁obtidos	-11.4122
IL	-11.4124
NI	-11.4124
▁Theatre	-11.4126
▁antecede	-11.4126
▁chá	-11.4128
▁afirmação	-11.413
passa	-11.413
▁1882	-11.4132
▁Bang	-11.4132
atura	-11.4133
▁Pá	-11.4133
▁caracteres	-11.4134
▁condecorado	-11.4134
▁transmissões	-11.4135
▁novidade	-11.4135
▁luxo	-11.4136
cheiro	-11.4136
▁1881	-11.414
gle	-11.4141
▁celebra	-11.4147
▁*	-11.4148
lata	-11.4148
▁Guatemala	-11.4149
▁Liverpool	-11.4149
Ber	-11.415
dito	-11.4151
▁CBS	-11.4152
▁emancipação	-11.4153
▁incluíam	-11.4155
▁Australian	-11.4157
▁agrupa	-11.4157
▁irrita	-11.4159
até	-11.416
▁ante	-11.416
▁bon	-11.4162
Sp	-11.4165
▁máscara	-11.4165
ound	-11.4166
▁pressiona	-11.4168
ppa	-11.417
çou	-11.4171
tip	-11.4174
PP	-11.4176
▁tragédia	-11.418
▁ferroviário	-11.418
Via	-11.4181
SO	-11.4183
▁Vig	-11.4183
▁Samba	-11.4183
▁Gaspar	-11.4187
▁suposto	-11.4191
CH	-11.4191
iça	-11.4195
▁instrumental	-11.4196
▁peculiar	-11.4196
▁Facebook	-11.4196
▁promete	-11.4197
História	-11.4197
▁mercadorias	-11.4198
▁contacto	-11.4199
▁copi	-11.4204
▁estrangeiras	-11.4206
▁Tennessee	-11.4209
NO	-11.4209
▁levantamento	-11.421
▁With	-11.421
▁afunda	-11.421
quim	-11.4211
▁inspirou	-11.4211
bica	-11.4214
▁barão	-11.4218
cruz	-11.4221
▁manifestação	-11.4222
▁expectativa	-11.4223
▁fundar	-11.4225
▁contêm	-11.4227
▁Nenhum	-11.4227
▁Basílica	-11.4227
▁Golfo	-11.4228
médio	-11.4229
▁laços	-11.4231
▁rumores	-11.4231
▁retornando	-11.4233
▁equações	-11.4235
▁múltiplas	-11.4235
▁emitiu	-11.4235
▁difusão	-11.4236
culares	-11.4236
tivismo	-11.4236
▁jogada	-11.4238
▁procedimentos	-11.4242
cento	-11.4242
▁bur	-11.4243
▁aparelhos	-11.4243
▁exposta	-11.4244
▁científicas	-11.4245
▁Galeria	-11.4246
▁literalmente	-11.4247
jada	-11.4248
▁coordenadas	-11.4248
▁2020.	-11.4249
▁pilo	-11.4249
▁Presidência	-11.425
mero	-11.4251
▁garante	-11.4251
dig	-11.4253
▁Normalmente	-11.4253
▁tia	-11.4255
▁Jer	-11.4256
▁Matos	-11.4257
▁Pil	-11.4257
▁africanos	-11.4258
▁salvo	-11.426
Ser	-11.4262
vid	-11.4262
▁1947,	-11.4263
volução	-11.4266
▁ritual	-11.4266
RN	-11.4266
ival	-11.4269
frag	-11.4271
▁Cama	-11.4272
▁Félix	-11.4273
▁Memorial	-11.4273
▁compromete	-11.4273
▁Sav	-11.4281
▁síndrome	-11.4281
▁parecido	-11.4283
▁subordinado	-11.4284
▁Clemente	-11.4288
▁laranja	-11.4289
▁subúrbio	-11.4289
▁moderado	-11.4289
▁vital	-11.4289
cesso	-11.429
nec	-11.4291
vez	-11.4292
ssen	-11.4296
▁dieta	-11.4297
▁aquático	-11.4297
▁04	-11.4298
▁Sudão	-11.4301
▁Évora	-11.4301
▁painel	-11.4302
▁merece	-11.4304
▁bicicleta	-11.4304
▁Reve	-11.4305
▁Prado	-11.4305
▁alcança	-11.4305
▁Pablo	-11.4306
▁dirige	-11.4307
ídeo	-11.4309
▁tomaram	-11.4312
▁corredores	-11.4312
▁inicio	-11.4313
tários	-11.4315
glio	-11.4316
▁sta	-11.4317
▁Roman	-11.4317
LI	-11.4318
▁1871	-11.4319
run	-11.4319
▁determinados	-11.432
▁Dinastia	-11.432
▁96	-11.432
▁exilado	-11.4322
▁maneiras	-11.4325
▁hop	-11.4326
xy	-11.4327
quina	-11.4327
▁Francisca	-11.4328
mur	-11.4328
▁Wagner	-11.4328
▁concebido	-11.4328
cerca	-11.4332
▁trechos	-11.4334
▁apontado	-11.4334
▁estágios	-11.4338
▁atualidade	-11.4338
yne	-11.434
she	-11.434
colhido	-11.434
▁Às	-11.4341
court	-11.4341
▁82	-11.4343
▁fecha	-11.4343
cante	-11.4343
å	-11.4344
▁Masculino	-11.4344
▁Austin	-11.4344
▁Guara	-11.4346
▁Nuno	-11.4347
▁Cent	-11.4347
▁pá	-11.4348
▁mapas	-11.4348
▁esculturas	-11.435
▁encontravam	-11.435
cord	-11.4352
▁140	-11.4353
mund	-11.4356
▁possuí	-11.4356
▁Bert	-11.4358
▁convidou	-11.4359
▁compacto	-11.436
▁acusação	-11.4361
Gu	-11.4365
▁triângulo	-11.4367
▁harmonia	-11.4367
▁acertou	-11.4368
▁1956,	-11.4368
tens	-11.4368
▁Mini	-11.4368
▁Ferrari	-11.4369
Am	-11.4369
▁Perry	-11.437
▁médias	-11.437
▁Cé	-11.4371
▁datada	-11.4374
▁governamentais	-11.4375
▁pacote	-11.4375
aro	-11.4375
rote	-11.4376
ivas	-11.4376
▁Milan	-11.4377
▁definitiva	-11.4377
cioso	-11.4379
▁1840	-11.438
nim	-11.4382
▁búlgaro	-11.4383
▁originária	-11.4383
▁Design	-11.4384
▁firme	-11.4385
▁inéditas	-11.4385
▁aprendeu	-11.4387
▁avançou	-11.4387
▁direciona	-11.4388
▁Get	-11.4389
íaco	-11.4389
▁Lawrence	-11.4391
▁ícone	-11.4391
▁Algarve	-11.4391
Uma	-11.4391
gência	-11.4394
▁caminha	-11.4396
▁"“	-11.4398
-13	-11.4406
ř	-11.4407
▁Etiópia	-11.4407
uário	-11.4408
RP	-11.4408
▁Wright	-11.4408
▁10%	-11.4411
rah	-11.4413
TI	-11.4414
▁Charlotte	-11.4415
cura	-11.4418
▁velhos	-11.4421
▁Roy	-11.4421
▁(2006)	-11.4422
▁Marshall	-11.4422
▁Year	-11.4423
▁contam	-11.4424
Gi	-11.4426
▁05	-11.4427
▁Tara	-11.443
face	-11.4432
ator	-11.4434
▁1867	-11.4438
▁exportação	-11.4438
▁Garden	-11.4439
▁gl	-11.444
▁agir	-11.444
▁mostraram	-11.4444
Porto	-11.4445
▁Bus	-11.4446
▁demissão	-11.4446
▁entregar	-11.4446
▁iriam	-11.4446
▁Hai	-11.4448
▁negativo	-11.4449
▁Robin	-11.4454
ν	-11.4454
▁1848	-11.4454
▁1865	-11.4455
▁2000)	-11.4457
justa	-11.4458
▁Montanha	-11.4458
▁solid	-11.4459
▁contagem	-11.446
▁bor	-11.4461
▁automaticamente	-11.4462
▁sacrifício	-11.4462
▁quadri	-11.4463
bei	-11.4466
▁regresso	-11.4466
▁monumentos	-11.447
estra	-11.4471
▁Over	-11.4471
▁viram	-11.4472
▁experimentos	-11.4473
▁volante	-11.4473
▁cavaleiros	-11.4474
▁mala	-11.4474
▁Luciano	-11.4474
▁pasta	-11.4474
▁tivessem	-11.448
▁Gon	-11.448
▁macro	-11.448
▁1985.	-11.4481
Cl	-11.4481
▁calc	-11.4484
▁aplicar	-11.4484
▁Paranaense	-11.4486
pac	-11.4486
▁Eye	-11.4488
worth	-11.4489
▁falhas	-11.4491
▁Adams	-11.4491
▁comandou	-11.4492
▁Divi	-11.4494
▁Bizantino	-11.4494
▁pseudônimo	-11.4494
▁Margaret	-11.4494
▁Mérito	-11.4494
▁prazer	-11.4495
vidas	-11.4496
gs	-11.4497
guer	-11.45
rite	-11.45
▁Arma	-11.4506
primido	-11.4507
▁protege	-11.4508
▁UNESCO	-11.451
▁Batalhão	-11.451
▁repressão	-11.451
▁Television	-11.451
▁abertas	-11.4516
▁consagrado	-11.4517
▁decorrência	-11.4518
▁Território	-11.4519
▁Filme	-11.4521
▁Cristóvão	-11.4526
▁Tocantins	-11.4526
▁escravidão	-11.4526
▁arena	-11.4529
▁mis	-11.4529
▁esconde	-11.4529
▁Ei	-11.453
▁muscular	-11.4531
obra	-11.4533
▁subsidiária	-11.4534
▁extenso	-11.4534
cele	-11.4535
,5%	-11.4536
nciais	-11.4537
▁Francesco	-11.4537
▁vêm	-11.4538
▁Stewart	-11.4542
erta	-11.4543
▁Exposição	-11.4544
ús	-11.4547
cles	-11.4547
hip	-11.4547
eller	-11.4548
ciclo	-11.4549
▁Nice	-11.4549
▁Heinrich	-11.455
▁Agricultura	-11.455
▁acompanhou	-11.4551
MB	-11.4551
▁biológico	-11.4551
▁consecutivas	-11.4554
▁carregado	-11.4554
▁relatou	-11.4555
tipo	-11.4555
timo	-11.4557
▁foge	-11.4558
▁Sergipe	-11.4558
▁telhado	-11.4558
VI	-11.4559
▁raro	-11.456
bun	-11.4564
▁mega	-11.4565
▁Gaga	-11.4565
▁Menor	-11.4565
franc	-11.4565
▁hospitais	-11.4566
▁parcela	-11.4566
▁aclamado	-11.4566
▁vertente	-11.4566
▁declarada	-11.4568
▁descarta	-11.4571
▁colocadas	-11.4572
▁adjacente	-11.4574
▁ancestral	-11.4574
▁definitivo	-11.4574
▁desporto	-11.4574
▁potências	-11.4575
▁estrear	-11.4575
▁comporta	-11.4576
▁estudado	-11.458
▁encerrar	-11.4581
▁81	-11.4581
▁playoffs	-11.4582
▁hidr	-11.4582
▁designer	-11.4584
▁Marina	-11.4584
▁desenvolvidas	-11.4585
nista	-11.4588
▁pertencem	-11.4589
▁cilindro	-11.459
▁(2004)	-11.459
▁polonês	-11.459
▁verbo	-11.4591
▁Tito	-11.4593
▁Rus	-11.4593
▁variedades	-11.4594
Ce	-11.4594
▁obriga	-11.4595
▁idéia	-11.4595
▁Niterói	-11.4597
▁infecção	-11.4598
▁Macedo	-11.4598
▁construtor	-11.4599
▁servidores	-11.4604
▁divulgada	-11.4605
▁grão	-11.4606
▁Iugoslávia	-11.4606
▁moderada	-11.4606
▁92	-11.4606
conhec	-11.4607
▁2,5	-11.4607
▁acadêmicos	-11.4607
▁Lorde	-11.4609
uno	-11.4609
▁juízes	-11.4614
▁júri	-11.4614
ilu	-11.4615
▁06	-11.4616
ômetro	-11.4616
onne	-11.4618
▁Augusta	-11.4618
tificado	-11.4619
dine	-11.462
▁exibe	-11.4621
▁creditado	-11.4622
▁requisitos	-11.4622
Tu	-11.4623
▁acção	-11.4624
▁regressa	-11.4624
▁hetero	-11.4625
▁longos	-11.4627
▁esperar	-11.4628
р	-11.4629
▁1876	-11.463
▁Tiago	-11.463
ather	-11.4631
▁Joel	-11.4633
ônicas	-11.4634
▁respostas	-11.4634
▁falando	-11.4636
▁bateu	-11.4638
▁Participa	-11.464
BB	-11.464
▁representava	-11.4641
▁interessa	-11.4641
▁lagoa	-11.4642
▁08	-11.4642
grav	-11.4644
▁Beth	-11.4644
▁boi	-11.4645
▁discutir	-11.4646
bie	-11.4647
т	-11.4654
▁ginástica	-11.4654
▁Ronald	-11.4655
▁Bud	-11.4656
▁planetas	-11.4656
▁novelas	-11.4657
▁Caça	-11.4659
▁consideração	-11.4659
▁muralhas	-11.4661
osamente	-11.4663
terapia	-11.4667
cine	-11.4668
▁fábricas	-11.467
▁Global	-11.4671
▁Hills	-11.4675
▁1946,	-11.4676
Los	-11.4677
▁jurisdição	-11.4679
ρ	-11.4679
▁Petersburgo	-11.4679
▁Censo	-11.4679
ship	-11.4679
▁mina	-11.4679
cut	-11.4683
SD	-11.4683
landês	-11.4685
▁jesuítas	-11.4685
▁fêmea	-11.4686
ESP	-11.4687
▁procurando	-11.4691
pá	-11.4694
▁URSS	-11.4695
▁Palestina	-11.4695
▁autorizado	-11.4697
▁fauna	-11.4697
▁Dean	-11.47
▁Act	-11.4701
▁escolhe	-11.4702
▁melhorias	-11.4703
icidade	-11.4705
▁correta	-11.4708
▁Herbert	-11.4709
▁divulgar	-11.4709
▁ilustra	-11.4713
estar	-11.4713
▁Yoshi	-11.4714
lder	-11.4715
▁1934,	-11.4715
herói	-11.4715
▁impressionante	-11.4717
▁tiros	-11.4718
▁múltiplos	-11.4718
▁matérias	-11.4719
▁brilho	-11.472
▁colaboradores	-11.4721
▁Superliga	-11.4721
tira	-11.4722
▁Cop	-11.4722
trin	-11.4723
▁Honor	-11.4726
▁Thor	-11.4728
▁conquistada	-11.4728
▁Metrô	-11.4728
▁terminaram	-11.4729
▁Shan	-11.4732
▁instância	-11.4733
▁limpa	-11.4733
Dia	-11.4735
iidae	-11.4735
PM	-11.4735
▁grávida	-11.4736
▁alegou	-11.4736
▁His	-11.4741
▁domina	-11.4741
▁PA	-11.4743
▁Glória	-11.4744
▁intermediário	-11.4744
▁revelar	-11.4745
▁Boi	-11.4746
▁Peso	-11.4746
▁conduz	-11.4747
hem	-11.4747
eus	-11.4748
▁meteoro	-11.4748
▁tons	-11.4751
banda	-11.4753
▁Levi	-11.4754
▁desvia	-11.4754
chel	-11.4755
▁posiciona	-11.4758
▁1883	-11.4759
▁doente	-11.4759
ugu	-11.4762
anto	-11.4762
-9	-11.4765
▁lançando	-11.4765
▁especializado	-11.4768
▁concorrência	-11.4768
▁horizontal	-11.4768
▁televisiva	-11.4768
▁básicos	-11.4768
▁mudando	-11.477
▁Alt	-11.4771
▁resistente	-11.4773
▁relevantes	-11.4773
▁embaixada	-11.4777
ordem	-11.4778
ith	-11.4778
▁Chegou	-11.4778
▁desaparecimento	-11.4785
▁instrução	-11.4785
▁Master	-11.4788
▁tendências	-11.4791
▁moça	-11.4792
▁trabalham	-11.4793
▁Boeing	-11.4793
riedade	-11.4795
▁totalidade	-11.4797
ciosa	-11.4797
▁Mulheres	-11.4798
morfo	-11.4798
▁Call	-11.4799
áculo	-11.48
▁surpreendente	-11.48
▁costumava	-11.4801
diz	-11.4801
quí	-11.4805
▁convenção	-11.4806
▁índices	-11.4806
▁cenários	-11.4807
▁Pena	-11.4807
▁Esteve	-11.4809
▁isolamento	-11.4809
iformes	-11.4809
▁Trindade	-11.4809
NC	-11.481
fato	-11.4811
▁1830	-11.4811
▁Filip	-11.4819
0%)	-11.4819
▁Douro	-11.482
▁Missouri	-11.482
visão	-11.482
sun	-11.482
▁Kurt	-11.4822
vino	-11.4823
▁Amar	-11.4823
▁manuscritos	-11.4825
▁alterada	-11.4825
▁Simpson	-11.4826
▁lâmina	-11.4826
▁Py	-11.4826
▁Vegas	-11.4827
▁Gy	-11.4828
▁Leonor	-11.4832
▁regressou	-11.4833
▁testa	-11.4834
▁Poly	-11.4834
▁Beatriz	-11.4835
▁sino	-11.4836
scrições	-11.4838
▁abrigar	-11.4838
▁rotas	-11.4839
▁amostras	-11.484
▁1868	-11.4842
▁fã	-11.4842
▁Take	-11.4844
nam	-11.4845
▁Poe	-11.4846
enburg	-11.4847
▁derivados	-11.4848
▁incapaz	-11.485
▁Vit	-11.485
▁chefes	-11.4851
▁transtorno	-11.4851
▁Pou	-11.4852
▁Fol	-11.4852
íno	-11.4853
▁Fundado	-11.4853
Tur	-11.4853
▁1936,	-11.4854
▁Eleito	-11.4854
membro	-11.4854
▁Armando	-11.4858
▁educacional	-11.4859
▁().	-11.486
▁parques	-11.4863
▁submetido	-11.4867
▁Atuou	-11.4867
▁RS	-11.4868
Time	-11.4869
▁referem	-11.487
▁Paço	-11.4871
▁tetra	-11.4872
neses	-11.4874
iões	-11.4875
▁repercussão	-11.4875
▁07	-11.4878
▁influenciada	-11.4879
órico	-11.488
▁consecutivos	-11.4881
oth	-11.4884
▁fazendas	-11.4884
▁Malta	-11.4888
▁Roque	-11.4888
▁1953,	-11.489
Ter	-11.4891
с	-11.4892
▁originou	-11.4892
▁padres	-11.4896
▁arcos	-11.4896
▁previamente	-11.4897
▁Ny	-11.4898
▁banho	-11.49
▁motiva	-11.49
flag	-11.4901
▁unir	-11.4903
▁Glo	-11.4903
▁rito	-11.4904
▁comerciante	-11.4904
▁Khan	-11.4904
plan	-11.4905
▁inclina	-11.4906
▁feminista	-11.4909
▁Saudita	-11.4909
_6	-11.4909
▁perigoso	-11.491
lagem	-11.4914
▁gri	-11.4914
▁executada	-11.4915
rquite	-11.4917
▁gratuito	-11.4917
▁cardíaco	-11.4917
▁filo	-11.4918
ipe	-11.4918
▁Kur	-11.4919
▁Diana	-11.4919
▁altera	-11.4919
▁fiscal	-11.492
▁Praga	-11.492
▁eliminatórias	-11.4921
▁espetáculos	-11.4922
▁1974.	-11.4924
auto	-11.4924
▁Menezes	-11.4925
tensão	-11.4929
▁disp	-11.4932
▁investiga	-11.4933
▁Infante	-11.4933
▁bebidas	-11.4935
minado	-11.4936
▁administra	-11.4937
teau	-11.4938
▁incluídos	-11.494
ría	-11.494
▁parceiros	-11.494
▁enquadra	-11.4942
▁gaúcho	-11.4942
▁Square	-11.4942
▁prol	-11.4942
istão	-11.4943
▁naturalmente	-11.4944
▁visitas	-11.4945
uka	-11.4945
▁atuações	-11.4946
pico	-11.4947
▁remoção	-11.4947
canto	-11.4947
hat	-11.4948
▁Ay	-11.4949
▁Berlin	-11.495
ī	-11.495
▁Júpiter	-11.495
▁evidencia	-11.495
▁inscrito	-11.495
izaram	-11.4952
esco	-11.4954
▁esgota	-11.4955
▁Fru	-11.4959
▁vazio	-11.4959
▁piscina	-11.496
ijo	-11.496
ligi	-11.4961
▁critério	-11.4964
▁parou	-11.4965
▁navega	-11.4965
tini	-11.4966
▁Raven	-11.4967
▁francesas	-11.4968
▁passada	-11.4969
▁Rossi	-11.4971
▁Modern	-11.4974
▁bol	-11.4974
▁reeleição	-11.4975
▁renúncia	-11.4975
▁rebotes	-11.4975
▁exibir	-11.4976
▁atualização	-11.4977
▁funda	-11.4978
▁envolver	-11.498
atus	-11.498
▁válido	-11.4981
▁1982.	-11.4981
▁desenvolvendo	-11.4982
▁estátuas	-11.4983
▁marítimo	-11.4984
▁puro	-11.4987
creta	-11.4987
▁vasto	-11.4987
▁renome	-11.4988
▁Vitor	-11.4989
▁Pic	-11.4991
▁orgulho	-11.4992
▁sítios	-11.4993
▁Op	-11.4994
▁1918,	-11.4995
▁votado	-11.4995
▁IN	-11.4996
curso	-11.4999
▁03	-11.4999
▁aquecimento	-11.5
▁regulamenta	-11.5001
▁Kansas	-11.5002
burn	-11.5005
▁compartilha	-11.5007
sberg	-11.5009
▁Math	-11.5012
▁cuidar	-11.5013
▁praticado	-11.5013
▁juntaram	-11.5016
▁eclesiástica	-11.5017
Palatinado	-11.5017
▁entregou	-11.5017
blast	-11.5018
lac	-11.5018
▁duma	-11.5018
mari	-11.5019
▁Roll	-11.502
▁grava	-11.502
▁comparada	-11.502
▁basquetebol	-11.502
▁justamente	-11.5022
▁Zen	-11.5025
▁1984.	-11.5025
▁Mak	-11.5027
▁Rat	-11.5029
▁prioridade	-11.5029
thy	-11.503
▁achou	-11.5031
▁Valle	-11.5032
▁turístico	-11.5032
▁quartel	-11.5034
▁determinadas	-11.5035
set	-11.5035
▁estabiliza	-11.5035
▁Eddie	-11.5035
▁Alva	-11.5036
neo	-11.5038
▁avançar	-11.5038
▁alterna	-11.504
izador	-11.5042
▁comarca	-11.5043
▁anglo	-11.5045
▁irão	-11.5047
▁saindo	-11.5047
▁reduz	-11.5048
▁Baden	-11.5048
▁bebida	-11.5049
▁divulgou	-11.5051
▁escocês	-11.5051
▁Alc	-11.5051
▁Italiana	-11.5051
eva	-11.5052
▁pura	-11.5058
ija	-11.5058
▁Studio	-11.5058
▁Great	-11.5059
▁percebeu	-11.5059
▁patrocínio	-11.5059
▁prejuízo	-11.5059
▁absorve	-11.5059
▁Stanley	-11.5061
▁museus	-11.5063
▁subsequente	-11.5063
▁gerada	-11.5064
▁91	-11.5064
▁disputaram	-11.5065
ashi	-11.5067
inae	-11.5068
▁Graham	-11.507
▁Cross	-11.5074
ianas	-11.5075
▁borboleta	-11.5076
▁vantagens	-11.5076
▁joelho	-11.5076
▁Actualmente	-11.5076
▁sessenta	-11.5076
▁mágico	-11.5076
▁Graças	-11.5077
▁1979.	-11.5077
▁tumor	-11.5078
▁tratada	-11.5078
▁dominado	-11.508
▁Golden	-11.508
▁invoca	-11.508
▁1983.	-11.5083
▁1987.	-11.5084
▁comemora	-11.5084
▁Know	-11.5086
base	-11.509
▁detém	-11.5091
▁judeu	-11.5093
▁recorda	-11.5094
puls	-11.5095
▁grafo	-11.5095
▁Legend	-11.5096
▁1957,	-11.5098
▁sobreviveu	-11.5098
dium	-11.5098
▁Brit	-11.5098
▁vence	-11.5099
▁fisi	-11.51
ifi	-11.5101
CR	-11.5101
▁tráfico	-11.5101
rez	-11.5101
▁Pau	-11.5103
▁julgado	-11.5103
▁massacre	-11.5105
▁Rome	-11.5105
med	-11.5107
▁administrada	-11.5107
▁coligação	-11.511
▁operacionais	-11.5111
▁trazia	-11.5113
▁Sempre	-11.5113
▁(0	-11.5116
▁1879	-11.5117
▁hábito	-11.5118
▁decorado	-11.5119
só	-11.5123
pila	-11.5124
ésia	-11.5125
cate	-11.5126
▁disparo	-11.5128
bran	-11.5128
▁prato	-11.5131
▁1861	-11.5133
raz	-11.5134
▁saga	-11.5134
fundador	-11.5134
hee	-11.5134
▁embarcação	-11.5135
▁Antioquia	-11.5135
▁sindicato	-11.5135
▁Lisa	-11.5136
▁Bulbophyllum	-11.5137
▁escolhidos	-11.5139
ónio	-11.5139
▁Thu	-11.5141
▁servem	-11.5142
▁79	-11.5143
ntina	-11.5144
áticos	-11.5144
▁ilumina	-11.5146
métrico	-11.5149
▁Tá	-11.515
▁ficado	-11.5152
1%)	-11.5153
▁Sociais	-11.5154
▁suspeito	-11.5161
tava	-11.5161
logo	-11.5162
▁detentor	-11.5164
eni	-11.5165
▁solos	-11.5166
▁reproduz	-11.5167
▁arranjos	-11.5169
▁aplicativo	-11.5172
work	-11.5175
▁Ponto	-11.5175
▁Bour	-11.5175
μ	-11.5178
▁Recentemente	-11.5178
▁rapaz	-11.5178
▁manuscrito	-11.5179
▁Dio	-11.5179
nell	-11.5181
▁compreender	-11.5181
iosa	-11.5182
veni	-11.5183
▁treinado	-11.5183
▁MC	-11.5184
jou	-11.5186
▁Cardeal	-11.5186
▁Jersey	-11.5187
▁Seis	-11.5187
etto	-11.5187
▁hindu	-11.5187
Pu	-11.5188
▁Aba	-11.5188
▁cho	-11.5188
mble	-11.5188
▁codice	-11.5188
▁atraiu	-11.5188
▁ausente	-11.5189
▁lembrar	-11.5191
▁governou	-11.5191
culos	-11.5193
▁listas	-11.5195
▁determinou	-11.5195
▁ecossistema	-11.5195
Rock	-11.5196
▁101	-11.5197
▁salários	-11.5198
itch	-11.5199
▁Kent	-11.52
lita	-11.5201
rap	-11.5201
▁biologia	-11.5201
▁redi	-11.5202
▁receitas	-11.5203
▁dividiu	-11.5203
▁Asiático	-11.5204
▁pão	-11.5205
▁defendendo	-11.5206
porte	-11.5208
ualmente	-11.5212
▁transformando	-11.5212
▁poço	-11.5215
▁lutando	-11.5216
▁Bag	-11.5216
▁lentamente	-11.5218
▁muçulmana	-11.5221
▁pecuária	-11.5221
▁Peri	-11.5221
▁disputados	-11.5221
▁codifica	-11.5222
▁coordenação	-11.5223
▁consideravel	-11.5225
III	-11.5226
niana	-11.5227
▁Mans	-11.5227
▁militantes	-11.5229
▁provincial	-11.5229
▁inserido	-11.5229
▁tiver	-11.5229
▁debates	-11.5232
▁trai	-11.5232
gó	-11.5233
▁Steel	-11.5234
▁venceram	-11.5234
▁USA	-11.5234
rian	-11.5234
ntí	-11.5235
»,	-11.5238
fici	-11.5239
▁Net	-11.5242
▁Zero	-11.5244
▁recruta	-11.5245
▁ur	-11.5245
▁derrotados	-11.5245
▁instalou	-11.5247
▁Eleições	-11.5247
tidae	-11.5248
▁enfrentaram	-11.5248
▁terminado	-11.525
▁palestras	-11.5253
▁distribuídas	-11.5253
▁oração	-11.5253
nze	-11.5254
ι	-11.5255
▁Abaixo	-11.5256
▁qualificação	-11.5257
▁proveniente	-11.5258
▁móvel	-11.5261
divi	-11.5262
▁Resultados	-11.5263
▁CN	-11.5263
▁dinamarquês	-11.5263
tex	-11.5264
▁Pon	-11.5265
Ab	-11.5267
▁febre	-11.5267
▁brevemente	-11.5267
▁refugiados	-11.5268
pata	-11.5268
▁bala	-11.527
ntado	-11.5271
▁Fernanda	-11.5272
▁Lançado	-11.5273
▁cone	-11.5273
▁consumidores	-11.5273
▁Bran	-11.5273
▁1932,	-11.5274
Dis	-11.5274
DP	-11.5274
▁1951,	-11.5276
▁atira	-11.5277
▁87	-11.5278
▁gravidez	-11.5281
▁encoraja	-11.5281
▁rituais	-11.5281
▁fundamento	-11.5281
▁editorial	-11.5282
▁continuava	-11.5287
yr	-11.5288
get	-11.5288
ova	-11.5288
▁sono	-11.5288
▁Well	-11.5289
ília	-11.5289
▁Kai	-11.529
▁formações	-11.5292
▁femininas	-11.5297
▁09	-11.5297
▁Ortodoxa	-11.5298
▁primitivo	-11.5298
▁1875	-11.5299
▁demonstração	-11.53
▁Carra	-11.5302
▁1933,	-11.5302
▁democrata	-11.5303
▁Intel	-11.5303
▁alterar	-11.5303
▁troço	-11.5305
not	-11.5306
▁riscos	-11.5306
▁20%	-11.531
▁fabrica	-11.5312
▁Caminho	-11.5314
▁Sorocaba	-11.5315
▁cancelado	-11.5315
▁Obras	-11.5319
▁planície	-11.532
Black	-11.5321
▁1873	-11.5322
▁analisar	-11.5322
▁sequências	-11.5322
érico	-11.5323
▁apresentadas	-11.5323
▁holandesa	-11.5324
▁oferecendo	-11.5328
▁erva	-11.5331
▁Fuji	-11.5331
nil	-11.5334
llen	-11.5336
Flor	-11.5338
▁cunhado	-11.534
▁Guanabara	-11.5341
▁inovação	-11.5341
▁receptor	-11.5344
DO	-11.5344
▁docente	-11.5345
▁1952,	-11.5346
▁buscando	-11.5349
▁afetada	-11.5349
▁quântica	-11.535
▁Gestão	-11.5351
▁bombas	-11.5352
▁nervo	-11.5352
cient	-11.5353
▁1950.	-11.5354
▁orientais	-11.5354
▁genético	-11.5355
Jornal	-11.5356
▁touchdown	-11.5359
▁Last	-11.5359
mand	-11.5359
▁formados	-11.536
▁Toda	-11.5361
LE	-11.5362
▁revelação	-11.5363
▁Adriano	-11.5364
▁reitor	-11.5366
cabeça	-11.5367
onista	-11.5367
▁Occitânia	-11.5367
▁estímulo	-11.5367
▁arquitecto	-11.5367
▁Mesquita	-11.5367
▁espelho	-11.5368
▁negou	-11.5368
▁Tsu	-11.5372
▁aquilo	-11.5373
▁levados	-11.5374
▁conservador	-11.5378
▁habitada	-11.5379
terio	-11.5379
▁junção	-11.5381
▁Amaro	-11.5383
eirão	-11.5384
▁possibilidades	-11.5384
▁Rodovia	-11.5385
▁Wy	-11.5385
▁Considerando	-11.5385
▁Crow	-11.5386
▁registrados	-11.5389
▁vidas	-11.5389
game	-11.5391
▁Whit	-11.5391
▁significativas	-11.5393
▁Helen	-11.5393
▁mira	-11.5393
▁Bruxelas	-11.5393
▁Líbano	-11.5393
▁Arizona	-11.5393
▁1935,	-11.5394
▁Fogo	-11.5395
▁concorrer	-11.5395
CM	-11.54
▁vota	-11.5402
▁Ludwig	-11.5402
▁Seul	-11.5406
MT	-11.5407
▁1877	-11.541
▁ensinar	-11.541
▁Fátima	-11.5411
▁consoante	-11.5411
▁abertos	-11.5411
▁seguia	-11.5412
▁86	-11.5414
▁Humanos	-11.5416
▁morava	-11.5417
▁comunicado	-11.5419
▁económico	-11.542
▁Like	-11.5421
▁Come	-11.5421
volucion	-11.5423
▁conquistaram	-11.5424
▁disponibiliza	-11.5426
▁Luke	-11.5427
▁definidos	-11.5428
▁cidadania	-11.5428
▁Ambiente	-11.5428
▁nocaute	-11.5428
▁Destaca	-11.5429
zh	-11.5429
▁puxa	-11.5431
▁verificar	-11.5435
▁Lor	-11.5435
▁acompanhamento	-11.5435
▁inseto	-11.5436
▁Jin	-11.5437
campeã	-11.5438
▁bater	-11.5438
▁Ras	-11.5439
▁permanecem	-11.5442
And	-11.5445
▁Gonzaga	-11.5446
▁López	-11.5446
▁islâmico	-11.5446
▁suplente	-11.5446
▁Gary	-11.5447
▁levanta	-11.5449
dler	-11.545
▁mineração	-11.545
bir	-11.5451
wing	-11.5453
▁menção	-11.5455
▁adesão	-11.5456
▁essenciais	-11.5456
▁forçada	-11.5457
▁mortais	-11.5457
▁Tribu	-11.5458
cte	-11.5458
▁aranha	-11.5461
▁afasta	-11.5462
▁Cook	-11.5462
▁Bourbon	-11.5463
fle	-11.5467
▁juntas	-11.5467
▁motorista	-11.5468
stil	-11.5469
▁Transportes	-11.5472
▁quis	-11.5472
▁Mauro	-11.5472
▁Saxônia	-11.5472
▁hebraico	-11.5472
▁1949,	-11.5472
▁alegria	-11.5472
▁remanescentes	-11.5473
mour	-11.5476
êncio	-11.5478
▁Timor	-11.5481
▁Parker	-11.5481
▁antiguidade	-11.5481
▁Noroeste	-11.5481
trico	-11.5481
▁Den	-11.5483
list	-11.5485
▁quadrado	-11.5485
▁frutas	-11.5486
▁adapta	-11.5488
▁Death	-11.549
range	-11.549
ieri	-11.5491
▁Berna	-11.5495
▁lançamentos	-11.5498
▁Televisão	-11.5499
▁estabelecidos	-11.5499
▁1930.	-11.55
lítica	-11.5501
▁jurista	-11.5503
▁mover	-11.5506
▁British	-11.5508
▁perseguido	-11.5509
▁Nem	-11.5511
▁Larry	-11.5512
▁Teologia	-11.5514
▁costumam	-11.5515
▁comunica	-11.5516
filia	-11.5519
▁convencer	-11.552
nay	-11.5522
comuna	-11.5522
▁Mind	-11.5522
DF	-11.5522
▁Arcebispo	-11.5525
▁Iron	-11.5525
▁colónia	-11.5525
▁naturalidade	-11.5525
▁infecta	-11.5525
▁Ganhou	-11.5526
▁teórica	-11.5526
▁cruzeiro	-11.5526
▁expressões	-11.5526
jó	-11.5526
▁retoma	-11.5531
▁comunas	-11.5534
▁pioneira	-11.5534
▁medir	-11.5534
▁Bab	-11.5534
muni	-11.5535
▁paisagens	-11.5535
▁Riba	-11.5539
▁Canta	-11.554
▁Bach	-11.5543
▁sofreram	-11.5545
One	-11.5546
▁ficaria	-11.5548
▁fatal	-11.555
emia	-11.5551
ffa	-11.5551
ree	-11.5551
▁Cachoeira	-11.5551
▁tocado	-11.5552
▁Cia	-11.5552
Oeste	-11.5552
▁actividades	-11.5553
▁classificar	-11.5553
▁Iguaçu	-11.5554
ícula	-11.5556
▁declarações	-11.5556
▁ocorrendo	-11.5558
nhão	-11.5559
▁liberação	-11.556
▁Giuseppe	-11.556
▁tecnológico	-11.556
▁térmica	-11.556
▁elogios	-11.556
▁Jazz	-11.5562
▁jogabilidade	-11.5562
▁mansão	-11.5563
▁Dallas	-11.5563
▁Pontifícia	-11.5569
▁uruguaio	-11.5569
▁Tau	-11.557
▁quebrou	-11.557
▁definiu	-11.5571
neiro	-11.5573
▁Estêvão	-11.5578
cílio	-11.5579
mani	-11.5581
▁Kirk	-11.5582
voz	-11.5584
▁97	-11.5584
▁secção	-11.5586
▁home	-11.5587
▁dinossauro	-11.5587
▁Box	-11.5587
▁consultor	-11.5587
▁apaixonado	-11.5589
pressa	-11.5589
hausen	-11.559
unda	-11.5591
lui	-11.5592
▁constituinte	-11.5595
▁mantiveram	-11.5596
▁Cesar	-11.5596
uld	-11.5596
▁feriado	-11.5597
▁duro	-11.5598
▁Quem	-11.56
▁Sacro	-11.5602
borg	-11.5602
▁Multi	-11.5603
just	-11.5603
bela	-11.5604
▁Singapura	-11.5605
▁incomum	-11.5605
▁contratos	-11.5606
▁adotar	-11.5606
▁Project	-11.5606
▁1986)	-11.5607
▁Pit	-11.5608
▁pênaltis	-11.5608
▁DO	-11.5611
▁lucrativos	-11.5612
▁estratégico	-11.5614
▁entradas	-11.5615
▁pioneiros	-11.5615
▁Quer	-11.5616
▁Boo	-11.5617
▁culmina	-11.5618
▁acabaria	-11.5619
▁demora	-11.5622
▁monges	-11.5622
▁algodão	-11.5625
▁terão	-11.5628
▁Point	-11.5628
iv	-11.5628
▁1872	-11.5629
▁Macedônia	-11.5631
▁linguagens	-11.5631
▁incluídas	-11.5635
Raw	-11.5635
▁Main	-11.5638
▁Imprensa	-11.564
▁diariamente	-11.5641
▁croata	-11.5641
▁substitui	-11.5642
crist	-11.5642
▁comentarista	-11.5642
Bel	-11.5642
▁Gustav	-11.5644
▁normais	-11.5645
▁retratos	-11.5647
▁1834	-11.5649
▁Arquipélago	-11.5649
▁Manhattan	-11.5649
▁sofrimento	-11.5649
▁pó	-11.5651
▁Mercado	-11.5652
▁falam	-11.5654
▁converteu	-11.5655
▁Artista	-11.5658
▁oscila	-11.566
▁externas	-11.5661
▁cartões	-11.5661
▁exames	-11.5663
▁Grava	-11.5666
▁distingue	-11.5667
pedi	-11.5669
▁coordenador	-11.567
conhecido	-11.567
▁Eg	-11.5672
▁Caminhos	-11.5672
▁pintado	-11.5673
▁Run	-11.5674
▁Silver	-11.5674
▁Lorenzo	-11.5675
▁perna	-11.5676
▁câmeras	-11.5676
▁radicais	-11.5676
▁Energia	-11.5676
parte	-11.5681
▁carácter	-11.5685
▁Renânia	-11.5686
▁Med	-11.5686
▁variantes	-11.5686
▁refrão	-11.5686
▁acolhe	-11.5688
irmão	-11.5693
▁Volume	-11.5695
nômica	-11.5695
▁liberta	-11.5697
▁lan	-11.5698
▁realista	-11.5699
▁ligando	-11.57
▁elaborada	-11.5703
anta	-11.5704
▁tratava	-11.5705
▁89	-11.5705
▁explorador	-11.5706
oeste	-11.5706
roy	-11.5707
rago	-11.5707
▁Wan	-11.5708
miss	-11.5708
▁Espa	-11.5709
▁melan	-11.5709
▁ferida	-11.571
▁clero	-11.5712
▁Claude	-11.5713
inus	-11.5714
ies	-11.572
▁afetado	-11.572
sho	-11.572
▁consciente	-11.5721
▁1985)	-11.5723
▁dum	-11.5724
logista	-11.5724
▁extração	-11.5727
ović	-11.5728
▁Gelo	-11.5728
æ	-11.573
ów	-11.573
▁manga	-11.5732
▁Pais	-11.5734
▁exata	-11.5734
▁cresce	-11.5734
▁Haiti	-11.5734
▁terminais	-11.5735
▁Dez	-11.5738
▁Prix	-11.5739
▁historicamente	-11.5739
▁fechou	-11.5739
chus	-11.5739
▁Montenegro	-11.574
▁essência	-11.574
▁dueto	-11.5741
▁governantes	-11.5741
yi	-11.5741
▁voluntários	-11.5742
mpo	-11.5744
▁terapia	-11.5744
▁Cau	-11.5748
▁directamente	-11.5748
Coleophora	-11.5748
▁Ambas	-11.5749
▁log	-11.5749
ceiro	-11.5749
▁Hunt	-11.575
▁adora	-11.5753
tuoso	-11.5753
▁sofrendo	-11.5754
▁Jaguar	-11.576
girl	-11.576
peri	-11.5762
▁93	-11.5762
▁converte	-11.5763
▁sar	-11.5763
▁suposta	-11.5763
▁equilibr	-11.5766
▁ativamente	-11.5769
▁hard	-11.5772
▁separar	-11.5773
▁García	-11.5775
▁arquitetônico	-11.5775
▁divórcio	-11.5775
▁mineral	-11.5776
It	-11.5778
antiga	-11.5781
▁1914,	-11.5782
reu	-11.5783
▁lucro	-11.5783
▁Amy	-11.5785
bico	-11.5785
▁especula	-11.5785
▁arqui	-11.5785
▁mestres	-11.5785
ware	-11.5785
▁privados	-11.5785
▁telespectadores	-11.5786
▁Owen	-11.5787
▁Claro	-11.5788
▁Not	-11.579
▁Ton	-11.5791
4%)	-11.5791
ícios	-11.5791
chev	-11.5793
▁Rogério	-11.5793
▁alienígena	-11.5793
▁promocional	-11.5793
▁fantasma	-11.5793
▁gastos	-11.5793
▁devolve	-11.5794
▁conduziu	-11.5794
▁Nota	-11.5794
▁argumentos	-11.5795
rad	-11.5796
ndula	-11.5799
▁contribuir	-11.5799
▁milícia	-11.5801
ciclista	-11.5802
▁vizinhas	-11.5802
▁you	-11.5803
▁#1	-11.5805
ful	-11.5806
▁Bretanha	-11.5811
▁desejava	-11.5811
▁elétricos	-11.5813
▁encontrando	-11.5814
Char	-11.5814
▁falência	-11.5814
▁corda	-11.5814
▁cortado	-11.5815
▁cate	-11.5815
▁celebrado	-11.5816
▁This	-11.5818
▁proibição	-11.5821
▁dificulta	-11.5821
▁Dilma	-11.5821
▁fibras	-11.5822
▁multa	-11.5822
▁Caldas	-11.5822
entando	-11.5823
▁demônio	-11.5825
▁1862	-11.5828
▁documentação	-11.5829
▁jeito	-11.5831
▁1987)	-11.5831
▁liderar	-11.5833
▁1976.	-11.5833
▁educado	-11.5836
▁MS	-11.5836
▁surgem	-11.584
under	-11.584
▁Nord	-11.584
▁Kate	-11.584
reia	-11.5842
▁Exemplos	-11.5843
▁Nico	-11.5843
Har	-11.5844
▁Gram	-11.5846
▁Fly	-11.5847
▁1836	-11.5848
[...]
